unsigned char buow_tinycnn_tflite[] = {
  0x1c, 0x00, 0x00, 0x00, 0x54, 0x46, 0x4c, 0x33, 0x14, 0x00, 0x20, 0x00,
  0x1c, 0x00, 0x18, 0x00, 0x14, 0x00, 0x10, 0x00, 0x0c, 0x00, 0x00, 0x00,
  0x08, 0x00, 0x04, 0x00, 0x14, 0x00, 0x00, 0x00, 0x1c, 0x00, 0x00, 0x00,
  0x80, 0x00, 0x00, 0x00, 0xd8, 0x00, 0x00, 0x00, 0xd8, 0x1e, 0x00, 0x00,
  0xe8, 0x1e, 0x00, 0x00, 0x5c, 0x2e, 0x00, 0x00, 0x03, 0x00, 0x00, 0x00,
  0x01, 0x00, 0x00, 0x00, 0x04, 0x00, 0x00, 0x00, 0x8e, 0xdd, 0xff, 0xff,
  0x0c, 0x00, 0x00, 0x00, 0x1c, 0x00, 0x00, 0x00, 0x38, 0x00, 0x00, 0x00,
  0x0f, 0x00, 0x00, 0x00, 0x73, 0x65, 0x72, 0x76, 0x69, 0x6e, 0x67, 0x5f,
  0x64, 0x65, 0x66, 0x61, 0x75, 0x6c, 0x74, 0x00, 0x01, 0x00, 0x00, 0x00,
  0x04, 0x00, 0x00, 0x00, 0x9c, 0xff, 0xff, 0xff, 0x1f, 0x00, 0x00, 0x00,
  0x04, 0x00, 0x00, 0x00, 0x06, 0x00, 0x00, 0x00, 0x6f, 0x75, 0x74, 0x70,
  0x75, 0x74, 0x00, 0x00, 0x01, 0x00, 0x00, 0x00, 0x04, 0x00, 0x00, 0x00,
  0xa6, 0xe4, 0xff, 0xff, 0x04, 0x00, 0x00, 0x00, 0x05, 0x00, 0x00, 0x00,
  0x69, 0x6e, 0x70, 0x75, 0x74, 0x00, 0x00, 0x00, 0x02, 0x00, 0x00, 0x00,
  0x34, 0x00, 0x00, 0x00, 0x04, 0x00, 0x00, 0x00, 0xdc, 0xff, 0xff, 0xff,
  0x22, 0x00, 0x00, 0x00, 0x04, 0x00, 0x00, 0x00, 0x13, 0x00, 0x00, 0x00,
  0x43, 0x4f, 0x4e, 0x56, 0x45, 0x52, 0x53, 0x49, 0x4f, 0x4e, 0x5f, 0x4d,
  0x45, 0x54, 0x41, 0x44, 0x41, 0x54, 0x41, 0x00, 0x08, 0x00, 0x0c, 0x00,
  0x08, 0x00, 0x04, 0x00, 0x08, 0x00, 0x00, 0x00, 0x21, 0x00, 0x00, 0x00,
  0x04, 0x00, 0x00, 0x00, 0x13, 0x00, 0x00, 0x00, 0x6d, 0x69, 0x6e, 0x5f,
  0x72, 0x75, 0x6e, 0x74, 0x69, 0x6d, 0x65, 0x5f, 0x76, 0x65, 0x72, 0x73,
  0x69, 0x6f, 0x6e, 0x00, 0x23, 0x00, 0x00, 0x00, 0xfc, 0x1d, 0x00, 0x00,
  0xf4, 0x1d, 0x00, 0x00, 0xe4, 0x1a, 0x00, 0x00, 0xac, 0x1a, 0x00, 0x00,
  0x94, 0x1a, 0x00, 0x00, 0x7c, 0x1a, 0x00, 0x00, 0x54, 0x1a, 0x00, 0x00,
  0x34, 0x1a, 0x00, 0x00, 0x14, 0x1a, 0x00, 0x00, 0xf4, 0x19, 0x00, 0x00,
  0xc4, 0x19, 0x00, 0x00, 0x74, 0x19, 0x00, 0x00, 0xe4, 0x18, 0x00, 0x00,
  0xb4, 0x17, 0x00, 0x00, 0x24, 0x13, 0x00, 0x00, 0x14, 0x01, 0x00, 0x00,
  0x0c, 0x01, 0x00, 0x00, 0x04, 0x01, 0x00, 0x00, 0xfc, 0x00, 0x00, 0x00,
  0xf4, 0x00, 0x00, 0x00, 0xec, 0x00, 0x00, 0x00, 0xe4, 0x00, 0x00, 0x00,
  0xdc, 0x00, 0x00, 0x00, 0xd4, 0x00, 0x00, 0x00, 0xcc, 0x00, 0x00, 0x00,
  0xc4, 0x00, 0x00, 0x00, 0xbc, 0x00, 0x00, 0x00, 0xb4, 0x00, 0x00, 0x00,
  0xac, 0x00, 0x00, 0x00, 0xa4, 0x00, 0x00, 0x00, 0x9c, 0x00, 0x00, 0x00,
  0x94, 0x00, 0x00, 0x00, 0x8c, 0x00, 0x00, 0x00, 0x6c, 0x00, 0x00, 0x00,
  0x04, 0x00, 0x00, 0x00, 0xa6, 0xe5, 0xff, 0xff, 0x04, 0x00, 0x00, 0x00,
  0x58, 0x00, 0x00, 0x00, 0x0c, 0x00, 0x00, 0x00, 0x08, 0x00, 0x0e, 0x00,
  0x08, 0x00, 0x04, 0x00, 0x08, 0x00, 0x00, 0x00, 0x10, 0x00, 0x00, 0x00,
  0x28, 0x00, 0x00, 0x00, 0x00, 0x00, 0x06, 0x00, 0x08, 0x00, 0x04, 0x00,
  0x06, 0x00, 0x00, 0x00, 0x04, 0x00, 0x00, 0x00, 0x01, 0x00, 0x00, 0x00,
  0xea, 0x03, 0x00, 0x00, 0x00, 0x00, 0x0a, 0x00, 0x10, 0x00, 0x0c, 0x00,
  0x08, 0x00, 0x04, 0x00, 0x0a, 0x00, 0x00, 0x00, 0x01, 0x00, 0x00, 0x00,
  0x02, 0x00, 0x00, 0x00, 0x04, 0x00, 0x00, 0x00, 0x06, 0x00, 0x00, 0x00,
  0x32, 0x2e, 0x31, 0x33, 0x2e, 0x30, 0x00, 0x00, 0x0a, 0xe6, 0xff, 0xff,
  0x04, 0x00, 0x00, 0x00, 0x10, 0x00, 0x00, 0x00, 0x32, 0x2e, 0x34, 0x2e,
  0x30, 0x00, 0x00, 0x00, 0x00, 0x00, 0x00, 0x00, 0x00, 0x00, 0x00, 0x00,
  0xb8, 0xd3, 0xff, 0xff, 0xbc, 0xd3, 0xff, 0xff, 0xc0, 0xd3, 0xff, 0xff,
  0xc4, 0xd3, 0xff, 0xff, 0xc8, 0xd3, 0xff, 0xff, 0xcc, 0xd3, 0xff, 0xff,
  0xd0, 0xd3, 0xff, 0xff, 0xd4, 0xd3, 0xff, 0xff, 0xd8, 0xd3, 0xff, 0xff,
  0xdc, 0xd3, 0xff, 0xff, 0xe0, 0xd3, 0xff, 0xff, 0xe4, 0xd3, 0xff, 0xff,
  0xe8, 0xd3, 0xff, 0xff, 0xec, 0xd3, 0xff, 0xff, 0xf0, 0xd3, 0xff, 0xff,
  0xf4, 0xd3, 0xff, 0xff, 0xf8, 0xd3, 0xff, 0xff, 0x6a, 0xe6, 0xff, 0xff,
  0x04, 0x00, 0x00, 0x00, 0x00, 0x12, 0x00, 0x00, 0x25, 0x12, 0x0b, 0xbe,
  0xfc, 0xff, 0x1d, 0x0e, 0xe2, 0xec, 0x0c, 0x15, 0x33, 0x19, 0x15, 0x0b,
  0x27, 0xe7, 0x06, 0xba, 0x06, 0xfc, 0x22, 0x17, 0x0b, 0x27, 0x18, 0x14,
  0x51, 0x18, 0x1a, 0x08, 0x0f, 0xee, 0xfc, 0xe2, 0xfe, 0xfe, 0x29, 0x11,
  0x13, 0x2f, 0xcb, 0x15, 0x4f, 0x18, 0xf5, 0xfe, 0x1e, 0x2d, 0x02, 0xbf,
  0xec, 0xde, 0x0a, 0x0c, 0xcc, 0x06, 0x03, 0x0f, 0x21, 0x0b, 0xf8, 0xfc,
  0x0d, 0x01, 0x05, 0xc3, 0x00, 0xdd, 0x1c, 0x0a, 0xf4, 0x39, 0x07, 0x13,
  0x1f, 0x1b, 0x18, 0xec, 0x0d, 0x0b, 0xf9, 0xea, 0xec, 0xef, 0x23, 0x0b,
  0xe9, 0x3e, 0xd9, 0x10, 0x26, 0x1b, 0xf8, 0xf1, 0x16, 0x2b, 0x01, 0xbc,
  0xf8, 0xf6, 0x0d, 0xfa, 0xcb, 0x4c, 0x1d, 0x19, 0x0d, 0x20, 0xfa, 0x11,
  0x0d, 0x18, 0x01, 0x9a, 0xfe, 0xfb, 0x06, 0xfe, 0xf3, 0x75, 0x14, 0x14,
  0x1f, 0x27, 0x05, 0x09, 0x0c, 0x10, 0x03, 0xcf, 0xe8, 0xfa, 0x1f, 0x0a,
  0xea, 0x7f, 0xe9, 0x19, 0x32, 0x19, 0x03, 0xf3, 0x12, 0xf3, 0x20, 0x2c,
  0x27, 0x29, 0xc6, 0xca, 0x0e, 0xc0, 0xad, 0x14, 0xf8, 0x42, 0xb7, 0x01,
  0x0e, 0x0d, 0x15, 0x27, 0x35, 0x0d, 0xe4, 0xb6, 0x18, 0xbe, 0xc2, 0x26,
  0xe6, 0x4d, 0xee, 0xf7, 0xf6, 0x11, 0xe5, 0x11, 0x10, 0x30, 0xe5, 0xbd,
  0x18, 0xf0, 0xe4, 0x07, 0x02, 0x46, 0x10, 0xca, 0xf9, 0x28, 0x09, 0xec,
  0x57, 0x25, 0xf1, 0x29, 0x0f, 0xd0, 0xbd, 0x0f, 0xea, 0x1d, 0xc4, 0xe0,
  0x00, 0x29, 0x10, 0x15, 0x4f, 0x1c, 0x03, 0x21, 0xfb, 0xc5, 0xcf, 0x1f,
  0x01, 0x12, 0xe5, 0xf0, 0xf8, 0x2d, 0x01, 0xff, 0x37, 0x31, 0x0e, 0x23,
  0xe3, 0xdc, 0xfb, 0xff, 0xf4, 0xf8, 0xe8, 0xcc, 0x06, 0x39, 0xef, 0xf9,
  0x7f, 0x06, 0xd1, 0x40, 0x01, 0x0a, 0xc8, 0xf2, 0xd9, 0xf0, 0xa0, 0xd4,
  0x03, 0x58, 0xff, 0x0a, 0x7f, 0xf4, 0xf8, 0x1a, 0x06, 0x0e, 0xb9, 0x00,
  0xff, 0x0a, 0xcb, 0xd2, 0xfa, 0x38, 0xf4, 0xed, 0x58, 0x07, 0xf8, 0x36,
  0x0c, 0x3b, 0x06, 0x08, 0xf3, 0xea, 0xd1, 0xc4, 0x19, 0x20, 0x72, 0x47,
  0x14, 0x27, 0xee, 0x07, 0xff, 0x01, 0xb1, 0x48, 0x01, 0x06, 0xdc, 0xa7,
  0x02, 0xfc, 0x57, 0x5d, 0x25, 0x2f, 0xd4, 0x05, 0xfd, 0xfd, 0xb4, 0x3f,
  0x0c, 0x29, 0xe7, 0xb1, 0x02, 0x23, 0x25, 0x2d, 0xfb, 0x52, 0xee, 0x07,
  0x1b, 0x1f, 0xe7, 0x41, 0x16, 0x0f, 0x0c, 0x8c, 0x28, 0x08, 0x52, 0xe9,
  0x29, 0xec, 0x12, 0x0e, 0xfd, 0xdc, 0xb7, 0x26, 0x13, 0xfd, 0xb5, 0xc0,
  0x16, 0x00, 0x5a, 0xff, 0x1d, 0x0f, 0x13, 0xe5, 0x19, 0xde, 0xbf, 0x26,
  0x10, 0xf9, 0xdf, 0xb5, 0x1b, 0xef, 0x24, 0x0f, 0x06, 0x28, 0xef, 0xe8,
  0x1b, 0x09, 0x02, 0x24, 0x05, 0xfa, 0xea, 0xb6, 0x38, 0x0d, 0x64, 0xef,
  0x17, 0xdf, 0x02, 0x60, 0xf2, 0xd8, 0x8a, 0x3a, 0x03, 0xfa, 0x81, 0xc5,
  0xff, 0x16, 0x68, 0x06, 0x27, 0xdb, 0xfa, 0x39, 0xf9, 0xec, 0x9b, 0x3e,
  0x06, 0x08, 0x99, 0xba, 0x13, 0x1c, 0x1c, 0xfe, 0x10, 0xf4, 0xd8, 0x4c,
  0x09, 0x2c, 0xe8, 0x4f, 0xe8, 0xf7, 0x91, 0x95, 0xc7, 0x11, 0x28, 0x33,
  0x46, 0x1d, 0x0d, 0x37, 0x23, 0xf7, 0xff, 0x1a, 0x25, 0x41, 0xee, 0xcc,
  0x05, 0x3f, 0x18, 0x22, 0x34, 0x27, 0x15, 0x19, 0x1b, 0xe0, 0xec, 0x34,
  0x26, 0x32, 0xf1, 0xf1, 0xdd, 0x0d, 0x0d, 0x20, 0x10, 0x26, 0xf6, 0x20,
  0x35, 0xf6, 0x0e, 0x06, 0x1d, 0x4d, 0xdc, 0x94, 0xe4, 0x31, 0x24, 0x0d,
  0x44, 0x03, 0x0e, 0xe7, 0xec, 0xcc, 0xf2, 0x17, 0x03, 0x18, 0xe2, 0xda,
  0x08, 0x37, 0x0c, 0x0b, 0x32, 0x29, 0x2c, 0xf5, 0xfc, 0xb4, 0xe3, 0x32,
  0x13, 0x14, 0xe4, 0xd7, 0x03, 0x0c, 0xfc, 0xf0, 0x19, 0x23, 0xf5, 0x04,
  0x09, 0xdf, 0x0e, 0x19, 0xfc, 0x00, 0xe1, 0xa2, 0x27, 0xf2, 0x0a, 0xf9,
  0x7f, 0x14, 0xd3, 0xdd, 0xb4, 0xc8, 0xea, 0x20, 0xea, 0x25, 0xc0, 0xdd,
  0x35, 0x1f, 0xf7, 0xeb, 0x4e, 0x1c, 0xdc, 0xcf, 0xb2, 0xa7, 0xbc, 0x2a,
  0xf3, 0x19, 0xc7, 0xf2, 0x42, 0xe8, 0xe2, 0xe2, 0x3d, 0xef, 0xda, 0xdb,
  0xb6, 0xf4, 0xd8, 0x10, 0xe6, 0x14, 0xbb, 0xa3, 0x16, 0xff, 0x41, 0x41,
  0xc8, 0x2a, 0xd8, 0xc6, 0xbb, 0xdc, 0xb2, 0x04, 0xd3, 0x1b, 0xe1, 0x20,
  0xf8, 0x1b, 0x4d, 0x1e, 0xd2, 0x21, 0xcc, 0xae, 0xb0, 0x06, 0xa4, 0x0c,
  0xcc, 0x0b, 0x07, 0x38, 0xe2, 0x19, 0x26, 0x29, 0xdc, 0x46, 0xf3, 0xae,
  0xbb, 0xcb, 0xc0, 0xf0, 0xe4, 0xff, 0x02, 0x35, 0x22, 0x08, 0x34, 0x06,
  0x93, 0x03, 0xda, 0xca, 0xf6, 0xf2, 0xe0, 0xf7, 0xf2, 0x15, 0xcc, 0x14,
  0x0e, 0xf0, 0x40, 0x13, 0xbc, 0xe3, 0xdf, 0xbe, 0xe5, 0xfa, 0xdb, 0xf0,
  0xf6, 0x1c, 0xde, 0x1c, 0x03, 0xff, 0x32, 0xef, 0xb1, 0x12, 0x10, 0xdd,
  0xe4, 0xe5, 0xfc, 0x01, 0xec, 0xf9, 0xf7, 0x20, 0x07, 0x16, 0x21, 0x3f,
  0x81, 0xf4, 0xf6, 0x20, 0x28, 0x12, 0x99, 0xfd, 0xff, 0x0d, 0xb5, 0x02,
  0xe3, 0x17, 0x4b, 0x39, 0xa9, 0xde, 0x14, 0x1a, 0x38, 0x33, 0xa4, 0x01,
  0xf8, 0x24, 0xd9, 0xf0, 0xe7, 0x1d, 0x25, 0x18, 0xa7, 0xf4, 0x0e, 0x1b,
  0x27, 0xf0, 0xc4, 0x07, 0x0d, 0x1a, 0xd4, 0x10, 0x17, 0x29, 0x0e, 0x20,
  0x2e, 0x3a, 0xf0, 0xea, 0x24, 0xc6, 0xc4, 0x13, 0x19, 0x47, 0xd2, 0xf3,
  0x04, 0x1f, 0x0a, 0x13, 0x36, 0x27, 0x0b, 0x01, 0x3a, 0xc7, 0xdb, 0x23,
  0x1a, 0x45, 0xf1, 0xf6, 0xfc, 0x1d, 0xf0, 0x15, 0x12, 0x41, 0x05, 0xfa,
  0x24, 0xf0, 0xfd, 0xf6, 0x19, 0x3f, 0x11, 0xd7, 0x07, 0x15, 0xfe, 0xf7,
  0x50, 0x28, 0xf2, 0xe8, 0x18, 0xd4, 0xc2, 0x14, 0xe6, 0x16, 0xce, 0xe4,
  0xf6, 0x2f, 0x11, 0x12, 0x55, 0x0d, 0xe2, 0xf5, 0x18, 0xc8, 0xd0, 0x21,
  0xee, 0x1b, 0xea, 0xda, 0x05, 0x37, 0x1a, 0xe6, 0x30, 0x33, 0x09, 0xe7,
  0x07, 0xed, 0x0e, 0x03, 0xea, 0xeb, 0xff, 0xcc, 0x11, 0x2d, 0xe3, 0x03,
  0x7f, 0x0b, 0xbb, 0x1f, 0x0d, 0x00, 0xce, 0xfa, 0xdd, 0xfd, 0xa8, 0xcd,
  0x14, 0x41, 0xf8, 0xfe, 0x76, 0xee, 0xe4, 0x34, 0x1b, 0x0c, 0xce, 0x0a,
  0xf4, 0xf9, 0xe0, 0xdd, 0x11, 0x2a, 0x05, 0xe3, 0x72, 0xf3, 0xe4, 0x29,
  0xfb, 0x3d, 0x29, 0xfd, 0xfc, 0xf6, 0xd4, 0xbd, 0xd1, 0x0a, 0x24, 0x1d,
  0x29, 0x15, 0x07, 0x0a, 0x33, 0xff, 0x14, 0x16, 0x0f, 0x28, 0xea, 0xee,
  0xf6, 0x2a, 0x14, 0x16, 0x28, 0x1e, 0x09, 0x04, 0x17, 0xfb, 0x0c, 0x1c,
  0x27, 0x28, 0xed, 0xf6, 0xe7, 0x11, 0x11, 0x1c, 0x0b, 0x16, 0xf5, 0x05,
  0x3c, 0xeb, 0x21, 0xee, 0x1c, 0x2c, 0xed, 0xbd, 0xe7, 0x12, 0x25, 0x0e,
  0x3d, 0x11, 0xee, 0xe7, 0x13, 0xcf, 0x0d, 0x10, 0x0e, 0x1e, 0xe1, 0xdc,
  0x05, 0x3b, 0x10, 0x05, 0x38, 0x18, 0x0d, 0xf4, 0x05, 0xc2, 0xfd, 0x21,
  0xfe, 0x06, 0xe3, 0xe8, 0x06, 0x1a, 0x1c, 0xff, 0x22, 0x07, 0xeb, 0x00,
  0x03, 0xcf, 0x15, 0xfb, 0x0a, 0xf6, 0xd8, 0xc0, 0x1b, 0x22, 0x0c, 0xfc,
  0x7f, 0xfd, 0xdf, 0xff, 0xd8, 0xd4, 0x01, 0x1f, 0xf2, 0x21, 0xe2, 0xeb,
  0x2f, 0x28, 0xeb, 0xf3, 0x5b, 0x22, 0x01, 0xf2, 0xd2, 0xc7, 0xf5, 0x27,
  0xfc, 0x16, 0xe3, 0xe6, 0x23, 0x15, 0xf8, 0xf4, 0x51, 0x03, 0xe8, 0xe7,
  0xd2, 0xe7, 0x09, 0x00, 0xf6, 0x00, 0xcb, 0xbd, 0xd4, 0xfd, 0xfa, 0x09,
  0x18, 0xcf, 0xd1, 0xed, 0x22, 0xb5, 0xfb, 0xce, 0xf4, 0x09, 0x22, 0x1d,
  0xfb, 0x12, 0x00, 0x0b, 0x23, 0xe3, 0xdb, 0xf6, 0x03, 0xaf, 0x06, 0xd0,
  0xe3, 0x11, 0xcf, 0x1c, 0xfc, 0xfb, 0x2c, 0x46, 0x1f, 0xf3, 0xe7, 0x23,
  0x28, 0xa4, 0xdf, 0xf1, 0xe9, 0xfd, 0xc8, 0xfe, 0xda, 0x0c, 0xfd, 0x15,
  0xea, 0xff, 0xbb, 0x13, 0x33, 0xd2, 0x10, 0xde, 0xdf, 0x1f, 0x05, 0x49,
  0xdc, 0xf8, 0x06, 0x10, 0xeb, 0xf6, 0xd4, 0x1a, 0x22, 0xcb, 0x1a, 0xe6,
  0xd4, 0x1c, 0xdb, 0x20, 0xe9, 0x04, 0x23, 0x4a, 0xda, 0x10, 0xc8, 0x53,
  0x23, 0xbb, 0xf2, 0xf5, 0xf6, 0x0c, 0xe2, 0x32, 0xe1, 0x39, 0xfd, 0x15,
  0xd4, 0xdf, 0xd7, 0x08, 0x3d, 0x81, 0x1c, 0xef, 0x03, 0x1d, 0x17, 0x61,
  0xf5, 0x18, 0x11, 0x2b, 0xe4, 0xf6, 0xdf, 0x29, 0x3a, 0x8e, 0x1e, 0xfa,
  0x09, 0x15, 0xec, 0x38, 0xf7, 0x3f, 0x33, 0x5a, 0xcc, 0xf4, 0x13, 0x44,
  0x2c, 0x8b, 0xf9, 0xfd, 0x0b, 0xfb, 0xde, 0x54, 0x10, 0x14, 0x20, 0x18,
  0xde, 0x0f, 0xef, 0x14, 0xfd, 0x56, 0x09, 0xf4, 0x0d, 0x17, 0xde, 0xf5,
  0x21, 0x0d, 0xfd, 0x19, 0xef, 0x29, 0x06, 0xf8, 0x04, 0x36, 0x01, 0x03,
  0xff, 0x06, 0x02, 0xff, 0x02, 0x09, 0xfe, 0xf6, 0x16, 0x29, 0xf9, 0xfa,
  0xfc, 0xb0, 0xdb, 0xf9, 0xe7, 0xf2, 0x0b, 0x0f, 0x14, 0x15, 0x09, 0x02,
  0xe8, 0x04, 0xf3, 0x0a, 0x08, 0x3c, 0xf4, 0x01, 0xee, 0x13, 0xd7, 0xf0,
  0x04, 0x01, 0x08, 0x02, 0x00, 0x06, 0x05, 0x08, 0x09, 0x27, 0x01, 0x02,
  0xef, 0x01, 0x02, 0xf0, 0xfd, 0x08, 0xfb, 0xf1, 0x1b, 0x2b, 0x0c, 0x09,
  0xf9, 0xc9, 0xe8, 0x07, 0xe4, 0xe9, 0x0b, 0x08, 0xfe, 0x00, 0x0b, 0x0b,
  0xeb, 0xec, 0xff, 0x14, 0x1b, 0x7f, 0xfd, 0xf5, 0xfc, 0xf9, 0xc1, 0xe3,
  0xf7, 0xef, 0xfe, 0x0e, 0x00, 0x0c, 0xf9, 0xfc, 0x09, 0x6f, 0x03, 0xfd,
  0xf7, 0xea, 0xfe, 0xe3, 0xea, 0x00, 0xed, 0xf2, 0x1e, 0x15, 0xfd, 0x10,
  0x01, 0xbe, 0xdf, 0x04, 0xdf, 0xed, 0xf5, 0x0a, 0x41, 0x2c, 0x36, 0x40,
  0xfe, 0xe2, 0x07, 0xf2, 0xd5, 0xd7, 0xc6, 0x7f, 0xf9, 0x01, 0x06, 0xc6,
  0x2e, 0x2d, 0x2e, 0x1d, 0xf8, 0xf7, 0x15, 0xfb, 0xe9, 0xe3, 0xc0, 0x7a,
  0x03, 0x1a, 0x00, 0xb7, 0x0e, 0x1d, 0x11, 0x31, 0xd9, 0x0a, 0xd7, 0x15,
  0x23, 0x11, 0xde, 0x74, 0x16, 0xf7, 0x04, 0xb0, 0x51, 0x0f, 0x30, 0x0b,
  0x05, 0xc5, 0x36, 0x38, 0xe9, 0xbb, 0xd9, 0x4c, 0xfe, 0x0a, 0x00, 0xcc,
  0x1d, 0xf8, 0x17, 0xfa, 0xe4, 0xee, 0x16, 0x2e, 0x00, 0xd4, 0xd6, 0x40,
  0x06, 0xf9, 0xf3, 0xce, 0x20, 0x08, 0x1f, 0x33, 0xef, 0x1b, 0x02, 0x1e,
  0x1c, 0x0b, 0xf9, 0x4e, 0x14, 0x05, 0xf0, 0xb0, 0x39, 0x0f, 0x44, 0xfd,
  0xea, 0xa2, 0x1e, 0x13, 0xfe, 0xd6, 0xc0, 0x73, 0xfd, 0x17, 0xe5, 0xc7,
  0x24, 0xfe, 0x33, 0x18, 0xe7, 0xcb, 0xeb, 0x14, 0xf8, 0xd8, 0xbc, 0x7a,
  0x02, 0x17, 0xda, 0xab, 0x04, 0x07, 0x30, 0x15, 0xda, 0x1f, 0xf4, 0x22,
  0x20, 0x5a, 0xc2, 0x78, 0xf0, 0xf8, 0xc1, 0x8d, 0xeb, 0x4d, 0xc9, 0xe2,
  0xfc, 0xa6, 0xff, 0xf4, 0xf0, 0xb7, 0x07, 0x13, 0x02, 0xfa, 0x17, 0x34,
  0xf0, 0x30, 0xbc, 0xee, 0xfe, 0x81, 0x0d, 0x1c, 0xf9, 0xb9, 0x05, 0x28,
  0xf2, 0xf1, 0x1d, 0x1b, 0xee, 0x1e, 0xf2, 0xee, 0xee, 0xcb, 0xf6, 0xfa,
  0xfa, 0xb5, 0xff, 0x3b, 0xe4, 0xe2, 0x0f, 0x2b, 0xef, 0x2e, 0xd2, 0xfb,
  0xfd, 0xc1, 0x11, 0x2d, 0x02, 0xbf, 0x14, 0x11, 0x1b, 0x2a, 0x1d, 0x2f,
  0xe2, 0x19, 0xb8, 0x0c, 0xe5, 0xbf, 0x1c, 0x47, 0x02, 0xaf, 0x35, 0x2c,
  0xeb, 0x0d, 0x1e, 0x1b, 0xf3, 0x1d, 0xfe, 0xf2, 0xe9, 0xf0, 0xf8, 0x5e,
  0xf1, 0xc8, 0x1d, 0x58, 0xe9, 0xff, 0x20, 0x19, 0xec, 0x3d, 0xed, 0x06,
  0x08, 0x84, 0x01, 0x0a, 0x16, 0x0c, 0x24, 0x4e, 0xf7, 0x36, 0x19, 0x5d,
  0xce, 0x11, 0xcf, 0x0f, 0xee, 0x96, 0xef, 0x27, 0x00, 0xd5, 0x2c, 0x4a,
  0x02, 0x01, 0x40, 0x49, 0xce, 0x06, 0x0e, 0x00, 0xd4, 0xd7, 0xf2, 0x17,
  0x02, 0xf4, 0xf5, 0x72, 0xda, 0x04, 0x18, 0x3f, 0xcb, 0x0e, 0xf8, 0xcf,
  0xe3, 0xc5, 0x02, 0x0a, 0xea, 0x39, 0x24, 0x18, 0xf2, 0x18, 0x0b, 0x02,
  0xc3, 0x0d, 0xe9, 0xe3, 0xff, 0xd7, 0xfc, 0xfe, 0xf1, 0x3c, 0x08, 0x18,
  0xfa, 0x04, 0x26, 0xff, 0xd1, 0xff, 0xe3, 0xe9, 0xf1, 0xf6, 0xef, 0x09,
  0xf0, 0xe1, 0xda, 0x00, 0xff, 0x08, 0x29, 0x21, 0xb1, 0x07, 0xef, 0xe4,
  0xf0, 0xce, 0xf1, 0xf1, 0xea, 0x3c, 0x09, 0x1e, 0x07, 0x06, 0x05, 0x01,
  0xad, 0xff, 0xfa, 0xff, 0x02, 0xd6, 0x06, 0xf6, 0xf9, 0x43, 0xf6, 0x19,
  0xfb, 0xf5, 0x1f, 0xf5, 0xb4, 0x05, 0xea, 0xef, 0xf1, 0xe4, 0xf8, 0xfb,
  0xdf, 0xdb, 0xd3, 0xfe, 0xef, 0xf0, 0x20, 0xff, 0xb1, 0x07, 0xff, 0xed,
  0xed, 0xbe, 0xfc, 0x0f, 0xea, 0x7f, 0x14, 0x28, 0x02, 0xff, 0x00, 0x06,
  0xad, 0x0f, 0xf0, 0xf5, 0xff, 0xc9, 0x01, 0xfd, 0x0b, 0x7e, 0x00, 0x18,
  0x00, 0xeb, 0x27, 0xfd, 0xb3, 0x15, 0xe6, 0xfe, 0xfa, 0xd4, 0x05, 0xf2,
  0xed, 0xf3, 0xdd, 0xfa, 0x09, 0xfa, 0x14, 0x0a, 0x55, 0x09, 0x01, 0xf2,
  0xf9, 0x0c, 0x27, 0xd4, 0xf3, 0xe0, 0xda, 0x23, 0x67, 0x09, 0x07, 0xf8,
  0x4b, 0xf8, 0xfe, 0xe2, 0x0c, 0xee, 0x29, 0xe3, 0x09, 0x05, 0xfa, 0x0a,
  0x77, 0x17, 0xff, 0x06, 0x49, 0xfd, 0xff, 0x00, 0xf6, 0x0e, 0x3a, 0xe0,
  0x18, 0x24, 0xd7, 0x0f, 0x6b, 0xff, 0xc3, 0xe8, 0x41, 0x3c, 0x0c, 0xd2,
  0xe8, 0xe1, 0x0c, 0xde, 0xdb, 0xf0, 0xdd, 0x13, 0x37, 0x10, 0x0a, 0xcf,
  0x38, 0x0b, 0x07, 0xd3, 0x00, 0xe4, 0x1a, 0xc4, 0xea, 0x2d, 0xf2, 0x14,
  0x44, 0x1a, 0xee, 0xf5, 0x2f, 0x00, 0x13, 0xdd, 0xeb, 0xe4, 0x2b, 0xdf,
  0xf4, 0x39, 0xcf, 0x15, 0x56, 0x08, 0xde, 0xef, 0x43, 0x1f, 0x23, 0xbb,
  0xfe, 0xf0, 0x10, 0xc7, 0xf0, 0x48, 0x09, 0x27, 0x2a, 0x43, 0x01, 0x15,
  0x18, 0x13, 0x1f, 0xa9, 0x02, 0xed, 0x1d, 0xdd, 0x06, 0x73, 0x03, 0x29,
  0x4d, 0x3d, 0x08, 0x17, 0x2f, 0x13, 0x14, 0xb8, 0xeb, 0xee, 0x12, 0xf1,
  0xf7, 0x7f, 0xe7, 0x23, 0x47, 0x37, 0xef, 0xfa, 0x19, 0x0a, 0xd4, 0x0b,
  0x1f, 0x17, 0xd9, 0xdb, 0x07, 0xdf, 0x83, 0xeb, 0xf5, 0x43, 0xf0, 0x4d,
  0x10, 0x01, 0xfb, 0x40, 0x28, 0x1e, 0xeb, 0xc8, 0x26, 0xc2, 0xba, 0x00,
  0xda, 0x3a, 0x02, 0x6b, 0x00, 0xea, 0xff, 0x11, 0x0a, 0xf8, 0x02, 0xbd,
  0x06, 0x9d, 0xf7, 0x9d, 0xea, 0x3c, 0x23, 0x3f, 0x13, 0xd6, 0xd3, 0xff,
  0x34, 0x1e, 0xb1, 0xb3, 0xfd, 0xda, 0x81, 0xea, 0xd2, 0xfc, 0x09, 0x4b,
  0x0e, 0xe6, 0xf4, 0x24, 0x3a, 0x10, 0xc9, 0x9c, 0xf8, 0xc2, 0xdd, 0xfb,
  0xcf, 0x15, 0xff, 0x25, 0x0a, 0xcb, 0x06, 0x0a, 0x19, 0x13, 0xc5, 0xa5,
  0xe8, 0x95, 0x07, 0x8a, 0xd1, 0x06, 0x13, 0x0c, 0xfc, 0x34, 0xa2, 0x1f,
  0x4f, 0x28, 0xce, 0xd7, 0x01, 0x13, 0xa2, 0xb9, 0xa7, 0xda, 0x08, 0x0b,
  0x16, 0x25, 0xd6, 0x29, 0x71, 0xff, 0xb4, 0xf3, 0x09, 0xe1, 0xcd, 0xc7,
  0xc9, 0xef, 0x05, 0x0d, 0x11, 0x34, 0xfe, 0xf5, 0x55, 0x10, 0xd4, 0xfb,
  0xeb, 0xa1, 0x42, 0x8f, 0xc3, 0xd8, 0xfa, 0x12, 0xee, 0xf5, 0xc6, 0x00,
  0xe5, 0x0c, 0xbb, 0xd3, 0x01, 0x81, 0xbd, 0x05, 0xcd, 0x05, 0x1a, 0x05,
  0xdf, 0xed, 0xd4, 0xea, 0xf8, 0x05, 0xc6, 0xf0, 0xf9, 0xad, 0xdc, 0x23,
  0xd8, 0x08, 0x41, 0xf4, 0xd9, 0xd6, 0xf7, 0xf5, 0xf7, 0x24, 0xd3, 0xff,
  0x0f, 0xbc, 0xc3, 0xf5, 0x00, 0xc3, 0x2a, 0xd8, 0xe8, 0x07, 0xe1, 0xe7,
  0xcd, 0xfb, 0xad, 0x27, 0xeb, 0xa7, 0x02, 0x1b, 0xae, 0x36, 0xe3, 0x2a,
  0xc1, 0xff, 0xee, 0xf6, 0xda, 0xf5, 0xce, 0x21, 0xf2, 0x99, 0x04, 0x39,
  0xca, 0x3b, 0x21, 0x1b, 0xad, 0x07, 0x01, 0xe4, 0xde, 0x20, 0xcc, 0x3a,
  0xf8, 0xa0, 0x0c, 0x14, 0xc4, 0xf9, 0x09, 0xed, 0x20, 0xef, 0xe3, 0xfc,
  0xba, 0xd7, 0xc3, 0xcc, 0x02, 0xb1, 0x23, 0x48, 0xd6, 0x4a, 0xac, 0x44,
  0xf6, 0xec, 0xef, 0x03, 0xb9, 0xd2, 0xdd, 0x03, 0xef, 0x81, 0x3c, 0x47,
  0xc3, 0x34, 0xe7, 0x10, 0x04, 0x05, 0xe8, 0xeb, 0xa5, 0x04, 0xd4, 0xf2,
  0x04, 0x8a, 0xfa, 0x30, 0xda, 0xec, 0xd4, 0xdd, 0xf3, 0x01, 0xc1, 0xfe,
  0xf7, 0x1d, 0xd6, 0xd7, 0xf9, 0x90, 0xc2, 0x04, 0xe0, 0xfe, 0x1b, 0x11,
  0xff, 0xe0, 0xdb, 0xe8, 0xfb, 0x0e, 0xfc, 0xed, 0xf2, 0xb6, 0xd4, 0x16,
  0xe5, 0xfd, 0x33, 0x0e, 0xe4, 0xf1, 0xea, 0xd4, 0xff, 0x2c, 0x11, 0x12,
  0x03, 0xbe, 0xd1, 0x02, 0x0b, 0xb8, 0x24, 0xfd, 0xe6, 0xea, 0xeb, 0x14,
  0xd8, 0xe7, 0xbf, 0xf9, 0x03, 0xa8, 0xf9, 0x11, 0xd6, 0x38, 0xeb, 0x36,
  0xfd, 0xed, 0xee, 0xe9, 0xe1, 0xf2, 0xec, 0x05, 0xf1, 0x96, 0x08, 0x29,
  0xd8, 0x29, 0x09, 0x26, 0xde, 0xfb, 0xfe, 0xf7, 0xe1, 0x26, 0xef, 0x13,
  0xf6, 0xb1, 0x02, 0x10, 0xf4, 0x08, 0x0c, 0x07, 0x15, 0xf3, 0xf7, 0x1d,
  0xc5, 0xd0, 0xdc, 0xde, 0xef, 0xaa, 0xfd, 0x3c, 0xd0, 0x4d, 0xd5, 0x68,
  0x0a, 0xf9, 0xfc, 0x07, 0xd9, 0xda, 0xe4, 0xea, 0xff, 0x81, 0x08, 0x47,
  0xcb, 0x35, 0xe2, 0x39, 0xe7, 0x00, 0xfb, 0x0c, 0xc0, 0xe7, 0xeb, 0x15,
  0xf9, 0x8d, 0xdd, 0x29, 0xdd, 0x27, 0xd6, 0x09, 0x26, 0x11, 0x00, 0xe9,
  0xb3, 0xcf, 0x0d, 0x29, 0xe0, 0x0f, 0xe6, 0x3d, 0x44, 0x20, 0x16, 0xd4,
  0x1b, 0xfd, 0x0b, 0xcc, 0xb9, 0xe9, 0x21, 0x2a, 0xef, 0x03, 0xe2, 0x17,
  0x44, 0x34, 0x17, 0xc2, 0x06, 0x01, 0x0e, 0xdc, 0xb0, 0xdb, 0x2f, 0x23,
  0xe0, 0x27, 0xcc, 0x0c, 0x4e, 0x0a, 0xf0, 0xbb, 0x0b, 0x27, 0x0c, 0xbc,
  0xde, 0xf3, 0x22, 0x0c, 0xd9, 0xeb, 0xea, 0x2c, 0x36, 0x30, 0x29, 0xce,
  0x0f, 0xfa, 0x09, 0xac, 0xd9, 0xe8, 0x17, 0xf7, 0xed, 0xf2, 0xf4, 0x22,
  0x31, 0x36, 0x0a, 0xdb, 0x18, 0xfc, 0x18, 0xa9, 0xcc, 0xf0, 0x0b, 0x01,
  0xe1, 0x2d, 0xd9, 0x1a, 0x39, 0x23, 0x13, 0xc1, 0xfc, 0x1d, 0x22, 0x8e,
  0xa3, 0xd1, 0xfd, 0x21, 0xc1, 0x12, 0x15, 0x34, 0x31, 0x3a, 0x0a, 0xe8,
  0xf4, 0x0b, 0x19, 0x82, 0xac, 0xd3, 0x1c, 0x17, 0xea, 0x45, 0x13, 0x33,
  0x2c, 0x4a, 0xf7, 0x03, 0xfe, 0x06, 0x24, 0xa8, 0x81, 0xf9, 0x08, 0x26,
  0xd7, 0x4f, 0xde, 0x23, 0x34, 0x33, 0xf6, 0xe3, 0x00, 0x06, 0x16, 0x21,
  0x06, 0x29, 0xdd, 0x0f, 0x22, 0x3a, 0xaa, 0x08, 0xf9, 0x23, 0xec, 0x04,
  0xf4, 0x1f, 0x26, 0x23, 0x09, 0x1c, 0xda, 0xfd, 0x07, 0x25, 0xb0, 0x15,
  0xe3, 0x14, 0xda, 0x12, 0xef, 0x19, 0x07, 0x01, 0x1f, 0x13, 0xec, 0x01,
  0x10, 0xca, 0xd2, 0xfa, 0xe1, 0xff, 0xef, 0x1a, 0x00, 0x0a, 0x19, 0x13,
  0xed, 0x11, 0xde, 0x16, 0x1b, 0x30, 0xd4, 0xfc, 0xe9, 0x17, 0xce, 0xfe,
  0x07, 0x1a, 0x17, 0x16, 0x10, 0x06, 0xd5, 0x1c, 0x01, 0x24, 0xe5, 0x0a,
  0xe2, 0x01, 0xda, 0x17, 0xed, 0xf7, 0xf9, 0xfb, 0x0f, 0x15, 0xdf, 0x13,
  0x07, 0xbb, 0xe7, 0x0a, 0xef, 0xf4, 0xeb, 0x12, 0x26, 0x35, 0x16, 0x17,
  0xfd, 0x1c, 0x04, 0x0e, 0x0e, 0x7f, 0xd4, 0xef, 0xfd, 0xee, 0xbf, 0xfc,
  0x12, 0x30, 0x04, 0x11, 0x16, 0x14, 0xdd, 0xf4, 0x19, 0x5e, 0xe8, 0xf8,
  0xf2, 0xea, 0xcc, 0xf6, 0xfb, 0x33, 0xdf, 0xee, 0x08, 0x17, 0x0c, 0x0a,
  0x19, 0xa1, 0xd3, 0xf7, 0xfb, 0xdc, 0xd8, 0x0c, 0xfa, 0xf6, 0xd0, 0x07,
  0x10, 0x1e, 0xf2, 0xd5, 0x32, 0x42, 0xc8, 0xe2, 0xff, 0x1b, 0x12, 0x2e,
  0x05, 0xf6, 0x0b, 0x3e, 0x15, 0x28, 0xd8, 0xdd, 0x21, 0xf8, 0x02, 0xec,
  0xe7, 0x2c, 0xf4, 0x29, 0x0d, 0xfa, 0x09, 0x25, 0xe7, 0xf5, 0xd6, 0xc0,
  0x22, 0x92, 0x18, 0x81, 0xe6, 0x46, 0x16, 0x22, 0xe0, 0xf3, 0xe1, 0x06,
  0x18, 0x11, 0xdf, 0xf9, 0x22, 0x21, 0xd8, 0xdc, 0xec, 0x02, 0xfe, 0x02,
  0xf3, 0xfa, 0xff, 0x18, 0x38, 0x21, 0xd1, 0x04, 0x08, 0xf2, 0x09, 0xf0,
  0xeb, 0x00, 0xfb, 0x10, 0x01, 0xee, 0x09, 0x09, 0xe9, 0x10, 0xdd, 0xf6,
  0x1f, 0x94, 0x1f, 0xa8, 0xd4, 0xf1, 0x0a, 0x09, 0xe4, 0x11, 0xae, 0x21,
  0x3f, 0xf7, 0xfe, 0x23, 0x10, 0x70, 0xe6, 0xd8, 0xd7, 0xd5, 0x11, 0xf4,
  0xd9, 0x1e, 0xd7, 0x1e, 0x4f, 0x21, 0xd7, 0x25, 0x0d, 0x6a, 0xfe, 0xce,
  0xd1, 0xf4, 0x0c, 0xe3, 0xfb, 0x12, 0xed, 0x0f, 0x1b, 0x11, 0xd7, 0x05,
  0x26, 0xc2, 0x3e, 0xa5, 0xcd, 0xdc, 0x08, 0xfa, 0xd4, 0x23, 0xbb, 0xef,
  0x0d, 0xf4, 0xfb, 0x22, 0xd7, 0x01, 0x08, 0x06, 0xed, 0x27, 0x22, 0x54,
  0xdc, 0x0e, 0xc2, 0xfc, 0x1e, 0xe8, 0xf6, 0x1e, 0xe0, 0x0c, 0x21, 0x09,
  0xdd, 0x4e, 0xff, 0x44, 0xcb, 0x1e, 0xfe, 0x24, 0x07, 0xe6, 0xf4, 0x1d,
  0xd6, 0x1e, 0x0c, 0x0a, 0xd4, 0x3c, 0x28, 0x43, 0xb9, 0x44, 0xb2, 0xf9,
  0xf7, 0xe6, 0x12, 0x15, 0xfb, 0xea, 0xfa, 0xfe, 0xeb, 0x16, 0x0e, 0x43,
  0xab, 0x19, 0xd0, 0x06, 0x03, 0xd3, 0x08, 0x1c, 0xe4, 0xe1, 0x1b, 0x06,
  0xe7, 0x33, 0x05, 0x2a, 0xa6, 0x05, 0xf0, 0x03, 0xfd, 0xeb, 0x09, 0x11,
  0xd6, 0x14, 0xf9, 0x08, 0xe6, 0x2c, 0x2a, 0x2e, 0xc3, 0x43, 0x81, 0x0c,
  0x0b, 0xe0, 0x21, 0x09, 0xe3, 0xfd, 0xf2, 0xf9, 0xfe, 0x1b, 0x35, 0x45,
  0xab, 0x2b, 0xb4, 0x03, 0x0a, 0xc1, 0x03, 0x02, 0xdf, 0x00, 0x30, 0x0f,
  0xea, 0x40, 0x1d, 0x30, 0xaa, 0xfe, 0xe8, 0x0f, 0x10, 0xce, 0x03, 0xf6,
  0xee, 0x26, 0x00, 0x02, 0xec, 0x26, 0x41, 0x2a, 0x2b, 0x0f, 0x74, 0x39,
  0xec, 0x36, 0xb6, 0xf6, 0xdd, 0xc4, 0x81, 0x11, 0xe1, 0x02, 0xcc, 0xe0,
  0xfe, 0xf5, 0x5c, 0x32, 0xfc, 0x19, 0xcc, 0xbf, 0xee, 0xfb, 0x8d, 0x21,
  0xd6, 0x15, 0x01, 0xde, 0xff, 0xff, 0x2d, 0x0f, 0xd6, 0x69, 0xe6, 0xce,
  0xd8, 0xe1, 0xc7, 0x18, 0xf1, 0x0e, 0x28, 0xe5, 0x3b, 0x12, 0x55, 0x03,
  0xda, 0xf3, 0xe6, 0xe9, 0xf0, 0xd2, 0xb7, 0x04, 0xe9, 0x0d, 0xbe, 0x0f,
  0x0d, 0xf9, 0x5e, 0x10, 0xe0, 0x02, 0xe1, 0xce, 0xf0, 0xe2, 0xaa, 0x08,
  0xf2, 0x03, 0xe9, 0x01, 0xf2, 0xf0, 0x34, 0x0a, 0xdf, 0x32, 0xf3, 0xda,
  0xeb, 0xef, 0xf7, 0x1e, 0xed, 0x09, 0xf3, 0xf9, 0x30, 0x20, 0x46, 0x12,
  0xc5, 0xf0, 0xfa, 0x24, 0x19, 0xc4, 0x86, 0x1f, 0xff, 0xfd, 0x99, 0xf3,
  0x14, 0x15, 0x68, 0x38, 0xdc, 0xbe, 0xe8, 0x2d, 0x00, 0xef, 0x86, 0x1b,
  0xec, 0xfd, 0x95, 0xf4, 0xf4, 0x2a, 0x17, 0x1a, 0xcb, 0x15, 0x01, 0x1b,
  0x17, 0xe8, 0xca, 0x44, 0xf4, 0x04, 0xc0, 0xe4, 0xda, 0x04, 0x0b, 0x0f,
  0xee, 0xe1, 0xbf, 0x12, 0xf8, 0xcb, 0x09, 0xe0, 0xdd, 0x01, 0x17, 0x15,
  0xef, 0xff, 0x0f, 0x05, 0xfc, 0xeb, 0xcd, 0x1f, 0xf2, 0xca, 0x0c, 0xeb,
  0xd2, 0x10, 0xdd, 0x06, 0xf5, 0x0f, 0x27, 0x42, 0xf9, 0xf6, 0xd3, 0x37,
  0x01, 0xbd, 0xf9, 0xfd, 0xdb, 0xf1, 0xe8, 0xfc, 0xf0, 0x05, 0x05, 0xf7,
  0xd9, 0xf6, 0xb1, 0xf6, 0x26, 0xde, 0x14, 0xf8, 0x09, 0x22, 0x07, 0x16,
  0xf5, 0xf6, 0x0c, 0xfe, 0xdd, 0x02, 0xd9, 0xf4, 0x0c, 0xd7, 0x17, 0xf5,
  0x01, 0x16, 0xd4, 0x20, 0xe9, 0x00, 0x32, 0x28, 0xd4, 0x11, 0xd0, 0x22,
  0x2e, 0xce, 0xf7, 0x03, 0x03, 0x05, 0xf4, 0xfa, 0xeb, 0x13, 0x07, 0x32,
  0xc7, 0xee, 0xdb, 0x46, 0x50, 0xb0, 0x0e, 0x00, 0x14, 0x18, 0x0b, 0x31,
  0xef, 0x0d, 0x22, 0x2c, 0xd6, 0xeb, 0xef, 0x5e, 0x4a, 0xa1, 0x17, 0x08,
  0xf7, 0x10, 0xe8, 0x18, 0xfc, 0x10, 0x31, 0x57, 0xcc, 0xee, 0x04, 0x7f,
  0x57, 0xa6, 0xf6, 0xff, 0x07, 0xfb, 0xe4, 0x0d, 0x0c, 0x00, 0x40, 0x3e,
  0x20, 0x28, 0xdb, 0xf6, 0x0b, 0x07, 0x81, 0x1b, 0xe0, 0x14, 0xf0, 0xdf,
  0xea, 0xfe, 0x44, 0x3d, 0x25, 0x28, 0xc9, 0xed, 0xfc, 0x1e, 0x97, 0x2c,
  0xef, 0x25, 0xf6, 0xe1, 0xdb, 0xdf, 0x0a, 0x03, 0x0d, 0x40, 0xf7, 0x04,
  0x03, 0x19, 0xc7, 0x15, 0xd2, 0x18, 0x04, 0xd6, 0x28, 0x15, 0x34, 0x03,
  0x0b, 0x01, 0xfc, 0x00, 0xef, 0xef, 0xbd, 0xfd, 0xf6, 0x0e, 0xda, 0xde,
  0xf7, 0x1a, 0x3e, 0x0f, 0x1a, 0xf7, 0x02, 0xe4, 0xfd, 0xed, 0xb9, 0x0b,
  0xfe, 0xff, 0xce, 0xe7, 0x08, 0x01, 0x19, 0xdc, 0x19, 0x21, 0xf9, 0xfc,
  0xda, 0x10, 0x04, 0x10, 0xf9, 0xe4, 0xee, 0xf6, 0x15, 0x42, 0x4a, 0x15,
  0x0c, 0x06, 0xfe, 0x07, 0xf5, 0x4c, 0xc5, 0xf8, 0xe9, 0xf9, 0x87, 0x01,
  0x0b, 0x2b, 0x45, 0x0b, 0x20, 0xef, 0xd8, 0xe9, 0xd0, 0x43, 0xb9, 0x01,
  0xff, 0xfc, 0x8f, 0xd8, 0xfa, 0x21, 0xfa, 0xf2, 0x19, 0x15, 0x03, 0xe6,
  0xde, 0x1b, 0xe5, 0x17, 0xff, 0xe8, 0xb3, 0xf9, 0xff, 0xf9, 0x16, 0x10,
  0xe8, 0x05, 0xee, 0x09, 0x1f, 0x47, 0x02, 0xf1, 0xf0, 0x1a, 0xcb, 0xf4,
  0x03, 0xf6, 0x15, 0x1e, 0xf0, 0x2b, 0x01, 0x04, 0x02, 0x34, 0x06, 0x07,
  0xe9, 0x01, 0xfd, 0x05, 0xf9, 0xfa, 0xff, 0xf1, 0x1b, 0x1e, 0xfb, 0xfa,
  0xfe, 0xac, 0xdc, 0x06, 0xec, 0xf6, 0x16, 0x17, 0x15, 0xfe, 0x13, 0xfb,
  0xec, 0xfa, 0xf1, 0x20, 0x0e, 0x41, 0xfb, 0x03, 0x01, 0x0f, 0xd0, 0xf0,
  0xfc, 0xff, 0x06, 0xfe, 0xf9, 0x07, 0x0b, 0x11, 0xfa, 0x11, 0x02, 0xff,
  0xeb, 0xf1, 0x00, 0xe6, 0xe7, 0xfc, 0x00, 0xf7, 0x12, 0x19, 0x06, 0x05,
  0xfd, 0xc9, 0xe5, 0x03, 0xe1, 0xef, 0x1b, 0x14, 0x15, 0x0b, 0x0c, 0x06,
  0xeb, 0xee, 0x02, 0x11, 0x18, 0x7f, 0x02, 0xec, 0x12, 0x04, 0xc6, 0xed,
  0xf9, 0x11, 0xff, 0x16, 0x0e, 0xf4, 0xfe, 0x00, 0x0c, 0x5e, 0xfb, 0xf7,
  0xfc, 0xeb, 0xfe, 0xe1, 0xe9, 0x13, 0xe9, 0xf5, 0x16, 0x22, 0xff, 0x01,
  0x01, 0xb2, 0xe5, 0x08, 0xec, 0xe9, 0x09, 0x0d, 0xe4, 0x08, 0xd7, 0xe4,
  0xe8, 0xb1, 0xef, 0xd0, 0x2e, 0xb8, 0x36, 0x28, 0xd9, 0x0d, 0x25, 0x2d,
  0xdc, 0x0a, 0xc7, 0xfc, 0xe8, 0xc7, 0xf4, 0x0d, 0x30, 0xb5, 0x5e, 0x3c,
  0xda, 0xe3, 0x35, 0x15, 0xd1, 0x07, 0x0c, 0xe7, 0xde, 0x09, 0xde, 0x17,
  0x3a, 0xa8, 0x03, 0x60, 0xc9, 0xec, 0x29, 0xf0, 0xd7, 0x32, 0xd7, 0xeb,
  0xf7, 0xb1, 0xe1, 0x42, 0x4a, 0xbe, 0x2a, 0x28, 0xf8, 0x26, 0x1c, 0x29,
  0xe9, 0x2c, 0xd4, 0xf9, 0xf0, 0xd4, 0xcd, 0x48, 0x4d, 0xc2, 0x59, 0x3c,
  0xf3, 0xef, 0x36, 0x06, 0xfd, 0x22, 0x0e, 0xfc, 0xde, 0x15, 0xc9, 0x7a,
  0x46, 0xd3, 0x19, 0x66, 0xcd, 0x02, 0x20, 0xed, 0x00, 0x2b, 0xe7, 0xfb,
  0xee, 0x8a, 0xd9, 0x3a, 0x6a, 0xd1, 0x60, 0x60, 0x05, 0x21, 0x2e, 0x21,
  0xda, 0x03, 0xdb, 0x01, 0xe9, 0xa8, 0xf6, 0x47, 0x56, 0xa8, 0x7d, 0x4a,
  0x16, 0xff, 0x1a, 0xe5, 0xd9, 0x2a, 0x11, 0xee, 0xbb, 0xbc, 0xd5, 0x5f,
  0x7f, 0xc3, 0x13, 0x7a, 0x1e, 0xde, 0x1d, 0xab, 0x03, 0x0f, 0xec, 0x09,
  0x32, 0xfe, 0x16, 0x12, 0xf2, 0x03, 0xa9, 0x07, 0xf8, 0x37, 0xf6, 0x58,
  0xfe, 0x17, 0xe9, 0x31, 0x18, 0x0b, 0x03, 0x0c, 0xf3, 0xe6, 0xb2, 0x28,
  0xf6, 0x4c, 0xf8, 0x7f, 0x08, 0x13, 0xe6, 0x10, 0x04, 0x01, 0x07, 0xf0,
  0xfe, 0xf3, 0x9f, 0xef, 0x02, 0x4d, 0x1f, 0x5b, 0x07, 0xff, 0xdf, 0x10,
  0x35, 0xf7, 0x19, 0xd6, 0xf0, 0xef, 0xb2, 0xee, 0x04, 0x0b, 0xeb, 0x3d,
  0xf9, 0x0f, 0xdc, 0x0a, 0x22, 0xfc, 0x12, 0xca, 0x08, 0xd3, 0xc8, 0x0d,
  0x00, 0x21, 0xff, 0x4e, 0x0b, 0x0c, 0xeb, 0x0b, 0x05, 0x15, 0xfc, 0xd5,
  0x07, 0xea, 0xd3, 0xea, 0xef, 0x08, 0xfd, 0x51, 0xef, 0x02, 0xa9, 0x0a,
  0x3c, 0xe0, 0x05, 0xf9, 0xeb, 0x42, 0xb3, 0xdc, 0x02, 0x01, 0x06, 0x49,
  0x00, 0x10, 0xb2, 0x08, 0x22, 0xf5, 0x02, 0xd7, 0xf5, 0xcd, 0xc7, 0xe5,
  0xf5, 0x0b, 0x01, 0x5d, 0xf6, 0x24, 0xd1, 0x06, 0x1a, 0xff, 0x02, 0xf3,
  0xf0, 0xd2, 0xef, 0xc8, 0xea, 0x05, 0x02, 0x68, 0xfc, 0x1b, 0xcf, 0x08,
  0xdb, 0xea, 0xf5, 0xdf, 0xd3, 0xa9, 0xcf, 0x09, 0xc0, 0xee, 0x1d, 0x01,
  0xde, 0xff, 0xda, 0xfa, 0xe0, 0xf3, 0x01, 0xdf, 0xba, 0xbb, 0xdb, 0x21,
  0xe2, 0xf3, 0x17, 0xfe, 0xfa, 0x23, 0x01, 0x13, 0xd4, 0x2a, 0x00, 0xe2,
  0xc9, 0xbb, 0xdb, 0x13, 0xd0, 0xd4, 0x39, 0xf5, 0x0e, 0xfb, 0xfa, 0x08,
  0xc6, 0xd3, 0xe2, 0x14, 0x04, 0xab, 0xfe, 0x17, 0xea, 0x32, 0x03, 0x42,
  0xe8, 0x01, 0x09, 0xf0, 0xc4, 0xf4, 0x0f, 0x13, 0xea, 0xa5, 0xff, 0x35,
  0xe9, 0x20, 0xfa, 0x0b, 0xff, 0x00, 0x1d, 0x07, 0xb9, 0x2c, 0xf2, 0x21,
  0xeb, 0xbc, 0x01, 0x3c, 0xf9, 0x07, 0xfb, 0xf1, 0x09, 0xf9, 0x29, 0x28,
  0xbb, 0xaf, 0xe8, 0x13, 0x17, 0xd6, 0x00, 0x5d, 0x02, 0x50, 0xd7, 0x57,
  0xf2, 0x04, 0x12, 0x10, 0xb2, 0xbf, 0x0d, 0x36, 0x33, 0xa0, 0x1a, 0x5e,
  0x02, 0x2f, 0xdd, 0x1c, 0xe2, 0x03, 0x23, 0x11, 0x81, 0xf0, 0x11, 0x52,
  0x32, 0xbf, 0xd2, 0x59, 0xfd, 0x1c, 0xca, 0xfd, 0xf0, 0x0c, 0xea, 0xf8,
  0xd2, 0xf1, 0xc2, 0xd0, 0xef, 0xea, 0x0b, 0x19, 0xc7, 0xfa, 0x81, 0xed,
  0xee, 0x1f, 0x00, 0xfd, 0xf2, 0xef, 0xe2, 0xc9, 0xfd, 0xed, 0x1b, 0x22,
  0xc5, 0x28, 0xc8, 0xdf, 0xe8, 0x1d, 0xf7, 0x07, 0xd3, 0xd1, 0xca, 0xe7,
  0x07, 0xd5, 0x05, 0xfc, 0xda, 0xd9, 0xd9, 0xc4, 0xed, 0x0d, 0xed, 0xd9,
  0xd2, 0x0a, 0xea, 0xb5, 0x0a, 0xf1, 0x1c, 0x16, 0xd7, 0x21, 0xa0, 0xe6,
  0xfa, 0x06, 0x00, 0xdd, 0xdc, 0xfd, 0xed, 0xb3, 0x0d, 0xed, 0x20, 0x16,
  0xde, 0x4d, 0xe8, 0xde, 0xeb, 0x1d, 0xfe, 0xce, 0xd3, 0x04, 0xed, 0xb3,
  0x14, 0xdb, 0x00, 0xef, 0xdc, 0x02, 0xfc, 0xd9, 0xee, 0x36, 0xf3, 0xf2,
  0xc9, 0x0d, 0xf8, 0xef, 0x35, 0xdf, 0x2f, 0x19, 0xe9, 0xf1, 0xbc, 0xd0,
  0xfa, 0x21, 0x15, 0x0e, 0xd9, 0xf8, 0xfb, 0xe4, 0x29, 0xd4, 0x36, 0x1e,
  0xf5, 0x1d, 0xf3, 0xd7, 0xfc, 0x35, 0x02, 0xec, 0xc2, 0x01, 0xf6, 0xec,
  0x44, 0xc8, 0x12, 0xf0, 0xdf, 0xd2, 0x15, 0xc3, 0xa6, 0x28, 0x8f, 0xfc,
  0x15, 0x0a, 0xe8, 0x0e, 0x06, 0xdd, 0x1f, 0x0d, 0xdd, 0x40, 0x24, 0x02,
  0xb7, 0x1b, 0xaf, 0x10, 0x23, 0x04, 0xef, 0x22, 0x00, 0xf0, 0x3a, 0x22,
  0xf1, 0x46, 0x15, 0x1c, 0xa4, 0x05, 0xcf, 0x0c, 0x11, 0xef, 0xe9, 0x1b,
  0x06, 0xcb, 0x2f, 0x08, 0xec, 0x26, 0x24, 0x02, 0xd3, 0x3f, 0xa7, 0xea,
  0x1d, 0x1e, 0x0b, 0x1b, 0x12, 0xc7, 0x15, 0x16, 0x16, 0x2f, 0x0d, 0x21,
  0xd5, 0x23, 0xb3, 0x08, 0x1d, 0x1d, 0x09, 0x0f, 0x03, 0xc2, 0x36, 0x1e,
  0xef, 0x2c, 0x09, 0x04, 0xc5, 0x18, 0xd1, 0xfe, 0x19, 0x22, 0x02, 0x1b,
  0x06, 0xbc, 0x23, 0x0b, 0xee, 0x30, 0x0e, 0x0a, 0xe7, 0x13, 0x92, 0xe0,
  0x39, 0xf8, 0x01, 0xd4, 0xd5, 0xc7, 0x14, 0x2b, 0xf7, 0x3a, 0x17, 0x2b,
  0xe5, 0x1c, 0x81, 0xe6, 0x37, 0xee, 0xf9, 0xd0, 0xef, 0xad, 0x2e, 0x2d,
  0xde, 0x28, 0x1a, 0x1d, 0xec, 0x1a, 0xc6, 0xea, 0x14, 0xec, 0xe2, 0xd1,
  0xee, 0x8e, 0x1f, 0x07, 0xcb, 0x10, 0x26, 0x1a, 0xfb, 0xf2, 0xfe, 0x27,
  0xad, 0xfc, 0xdb, 0xd9, 0xe8, 0xf3, 0x02, 0x13, 0xef, 0x0d, 0x0b, 0xf7,
  0xf6, 0x03, 0x01, 0x11, 0xc1, 0x07, 0xdf, 0xd3, 0xdd, 0x08, 0xff, 0x12,
  0xe7, 0x04, 0x22, 0xfc, 0xf2, 0xef, 0x0c, 0x1f, 0xaf, 0x0a, 0xe9, 0xdf,
  0xd9, 0xeb, 0xf7, 0x03, 0xf0, 0xff, 0x17, 0xef, 0x0a, 0xf7, 0x0b, 0xea,
  0xa5, 0xf7, 0xef, 0x06, 0xf2, 0xfd, 0x0b, 0x06, 0xe7, 0x23, 0x07, 0x02,
  0xed, 0x0d, 0x10, 0x02, 0xb8, 0x0b, 0xdc, 0x0e, 0x07, 0x12, 0x08, 0x07,
  0xeb, 0x19, 0xfc, 0xf5, 0xfe, 0x0d, 0x20, 0xff, 0xab, 0x13, 0xde, 0x10,
  0x04, 0xfd, 0x19, 0x0d, 0xef, 0x0a, 0x04, 0xef, 0xf2, 0xeb, 0x04, 0x10,
  0x88, 0xd6, 0xee, 0x37, 0x33, 0x03, 0xea, 0x1c, 0xfd, 0x0c, 0x0a, 0xe4,
  0xe6, 0xed, 0x10, 0x10, 0x9b, 0xf1, 0xf2, 0x39, 0x48, 0x10, 0x01, 0x22,
  0xf8, 0x0f, 0xfa, 0xf2, 0xfc, 0xfb, 0x17, 0x0d, 0x81, 0xea, 0xf2, 0x26,
  0x35, 0xe6, 0xe9, 0x1c, 0xf5, 0xee, 0xfc, 0xdc, 0x20, 0xea, 0x12, 0x14,
  0xb5, 0x13, 0xf6, 0xef, 0xea, 0x32, 0xfb, 0x10, 0xf0, 0x22, 0x0c, 0x04,
  0x18, 0xf6, 0x11, 0x0c, 0xbf, 0x07, 0xed, 0xe0, 0xf2, 0x3a, 0xf1, 0x0d,
  0xf7, 0x17, 0x11, 0x05, 0x18, 0xe4, 0x19, 0x18, 0xbe, 0x1b, 0xf7, 0xf3,
  0x03, 0x12, 0xfb, 0x15, 0xff, 0xfe, 0x08, 0x16, 0x19, 0x03, 0x0b, 0x0a,
  0xbf, 0x03, 0xf2, 0x23, 0x01, 0x2e, 0xef, 0x0b, 0xf5, 0x18, 0x13, 0xf6,
  0xff, 0xf2, 0x02, 0x09, 0xda, 0x01, 0xf5, 0x24, 0xff, 0x4a, 0xe5, 0x06,
  0xfd, 0x14, 0xf5, 0xf2, 0x01, 0xf7, 0x13, 0x10, 0xd6, 0x20, 0x0d, 0x29,
  0x07, 0x0d, 0xe1, 0x14, 0x09, 0x0a, 0x04, 0x06, 0x05, 0xef, 0x01, 0x0f,
  0xa4, 0xdb, 0xfb, 0x1a, 0x06, 0x6a, 0xea, 0x09, 0x02, 0x09, 0x13, 0xd9,
  0xec, 0x0a, 0xfc, 0x08, 0xbc, 0xe0, 0x02, 0x1b, 0x15, 0x7f, 0xf2, 0x14,
  0xf6, 0xff, 0xfc, 0xe4, 0xf5, 0xfc, 0x17, 0x09, 0xb7, 0xe7, 0x0a, 0x31,
  0x1f, 0x31, 0xe8, 0x15, 0x11, 0xf1, 0xff, 0x01, 0x08, 0x06, 0xed, 0x0e,
  0x09, 0xee, 0xe5, 0xed, 0xd3, 0x5a, 0xa0, 0xda, 0xde, 0x49, 0x15, 0x5c,
  0xfe, 0x07, 0x16, 0x1c, 0x13, 0x1b, 0xde, 0xdb, 0xef, 0x0b, 0xca, 0xe4,
  0xbb, 0x54, 0xed, 0x73, 0x08, 0xf7, 0xfd, 0x15, 0xf4, 0xdb, 0xfd, 0xf0,
  0xde, 0xa6, 0xee, 0xa7, 0xd8, 0x64, 0x00, 0x70, 0xe2, 0xf5, 0xfc, 0xfa,
  0x07, 0xc9, 0xda, 0xe9, 0xea, 0x2f, 0xcb, 0xcd, 0xd0, 0x0e, 0x02, 0x2f,
  0xed, 0xca, 0x0a, 0x15, 0x1a, 0xc3, 0xce, 0xd0, 0xf0, 0x12, 0xe0, 0xdd,
  0xd4, 0x27, 0xd7, 0x39, 0x0b, 0xde, 0xf9, 0x04, 0xee, 0xc4, 0xe0, 0xd0,
  0xf1, 0xa2, 0xf6, 0xbf, 0xde, 0x13, 0x01, 0x51, 0x01, 0x2e, 0xcc, 0x32,
  0x1e, 0xcc, 0x12, 0xf8, 0x12, 0x7d, 0xc8, 0xac, 0xcd, 0xfb, 0x17, 0x3b,
  0xea, 0x19, 0xf5, 0x38, 0x1d, 0xbb, 0xd3, 0x0e, 0x0c, 0x7f, 0xd8, 0xa7,
  0xc1, 0x06, 0xec, 0x39, 0xff, 0x13, 0xba, 0xfe, 0x0a, 0xcb, 0x14, 0xf4,
  0x11, 0x9d, 0x1a, 0x90, 0xd2, 0xed, 0xe0, 0x60, 0x76, 0xf8, 0xff, 0xff,
  0x04, 0x00, 0x00, 0x00, 0x80, 0x04, 0x00, 0x00, 0x1b, 0xf3, 0x1d, 0x23,
  0xcb, 0xcc, 0xf2, 0x1c, 0xf1, 0xd8, 0xf5, 0x18, 0xc4, 0xc9, 0xdf, 0xf5,
  0x05, 0xbd, 0xb6, 0x1e, 0xd3, 0xb8, 0xe2, 0x15, 0x26, 0x04, 0x9c, 0xf4,
  0x8d, 0xa3, 0xb0, 0x12, 0xf3, 0x0b, 0xce, 0x03, 0x93, 0xa7, 0xd0, 0xed,
  0x14, 0x2d, 0xbd, 0xfb, 0x81, 0xbd, 0xa6, 0x1a, 0x32, 0x10, 0xcb, 0xd6,
  0xca, 0x22, 0xd1, 0x3e, 0x12, 0x1c, 0xe1, 0xef, 0xc7, 0xd7, 0xc6, 0x2d,
  0xf8, 0x44, 0xbf, 0xd7, 0xbd, 0x07, 0x9f, 0x21, 0xd4, 0x47, 0xf3, 0x05,
  0xa9, 0xcf, 0xcf, 0xd8, 0xf4, 0xcf, 0xdc, 0xf4, 0xca, 0xf1, 0xc0, 0xac,
  0xd3, 0x32, 0x26, 0x00, 0xbe, 0xe0, 0xbf, 0xd3, 0xfd, 0xf1, 0x8b, 0xab,
  0xef, 0x0b, 0xe1, 0x8e, 0xcb, 0x1d, 0xa3, 0x92, 0xf4, 0xed, 0xb3, 0xd8,
  0xf7, 0xff, 0x94, 0xac, 0xb9, 0xfe, 0xb2, 0xea, 0xa6, 0x39, 0x2b, 0x42,
  0x06, 0x22, 0x33, 0x9b, 0xdd, 0xeb, 0x24, 0xfe, 0x14, 0xfb, 0xf5, 0x81,
  0xb9, 0x0f, 0x2c, 0x02, 0x0c, 0x10, 0x23, 0x95, 0xfa, 0xe5, 0xcc, 0x12,
  0xda, 0xf7, 0xf3, 0x23, 0xeb, 0xf2, 0x1a, 0x32, 0xe4, 0xf9, 0xf4, 0xdd,
  0xee, 0x33, 0x25, 0xf1, 0xea, 0xf3, 0xde, 0xeb, 0xff, 0xfa, 0xfa, 0x31,
  0xfa, 0x23, 0x07, 0x1a, 0xf5, 0xc5, 0xdf, 0x2a, 0xe4, 0x00, 0xfd, 0xcf,
  0xe9, 0x5b, 0xdb, 0xfd, 0xcf, 0x29, 0xe8, 0xe5, 0xfa, 0x29, 0xdf, 0x08,
  0xf8, 0x21, 0x10, 0xf7, 0x0b, 0x81, 0x18, 0x01, 0xfe, 0x20, 0xe5, 0xe3,
  0xca, 0x55, 0x2a, 0xe4, 0xdd, 0xb0, 0xda, 0xe3, 0x23, 0xfb, 0xe4, 0xef,
  0x03, 0x65, 0x3a, 0x3c, 0x20, 0xa8, 0xd7, 0xa0, 0xdf, 0x7f, 0x10, 0xf9,
  0x3a, 0x42, 0xc4, 0x5c, 0xc5, 0x47, 0x01, 0x2b, 0x11, 0xde, 0x19, 0x4f,
  0x37, 0x0f, 0x63, 0x14, 0x0c, 0x01, 0xfd, 0x36, 0x45, 0x67, 0x3a, 0x36,
  0x22, 0x66, 0x02, 0x3c, 0x0b, 0x5f, 0x3d, 0xf5, 0x0d, 0xba, 0x29, 0xb5,
  0x7b, 0x23, 0x4a, 0x31, 0x10, 0xd2, 0x03, 0xfe, 0x72, 0x2e, 0x68, 0x1d,
  0xe8, 0x43, 0x26, 0xd2, 0x32, 0x22, 0x3e, 0x18, 0xed, 0xfc, 0x81, 0x15,
  0x15, 0xdf, 0x2e, 0x27, 0xc8, 0xfb, 0x99, 0x71, 0x12, 0xa7, 0x22, 0x28,
  0xf2, 0x2a, 0x89, 0x2e, 0x02, 0xd0, 0x16, 0x12, 0x1e, 0x14, 0x09, 0xd7,
  0xfa, 0x1a, 0x09, 0xf3, 0x21, 0xd4, 0x2c, 0xdd, 0x0b, 0x2a, 0xec, 0xf5,
  0x2b, 0xef, 0x0b, 0xfc, 0x0a, 0x40, 0x1e, 0xf9, 0xe4, 0xfc, 0x02, 0xc7,
  0x1e, 0x03, 0xd0, 0xcb, 0xd5, 0xea, 0x03, 0xfe, 0x2e, 0xfa, 0xbe, 0xd9,
  0xe2, 0x21, 0xf0, 0x03, 0x15, 0x03, 0xfb, 0xd7, 0x08, 0x84, 0x14, 0xff,
  0xdd, 0x0d, 0xce, 0xe2, 0x19, 0x1b, 0xf4, 0xc9, 0xbf, 0xf2, 0xc9, 0xf5,
  0x18, 0xd3, 0x81, 0xb0, 0xe8, 0x25, 0xdb, 0x0a, 0xe5, 0xf9, 0xdf, 0xe9,
  0xd7, 0x29, 0xe3, 0xf7, 0x2c, 0x17, 0xc0, 0xa0, 0xc6, 0x4a, 0xdf, 0xf8,
  0x1c, 0xea, 0xcb, 0xed, 0xf5, 0x1a, 0xf4, 0xfd, 0xf0, 0x8d, 0xfe, 0x24,
  0xa9, 0xfe, 0xb8, 0xd2, 0xfa, 0x1c, 0xed, 0xef, 0xbe, 0xe7, 0xce, 0xd4,
  0xea, 0xb7, 0xe5, 0xf5, 0xbf, 0x54, 0xb3, 0xd8, 0x25, 0x9b, 0x06, 0xf7,
  0x0a, 0xed, 0xe7, 0x07, 0x0f, 0x96, 0x1f, 0x24, 0x0e, 0xd2, 0x13, 0x0f,
  0xfc, 0xee, 0x2f, 0x23, 0x07, 0xb6, 0x0e, 0x03, 0x0b, 0x97, 0xe8, 0xeb,
  0xf8, 0x17, 0xe8, 0xf8, 0xf9, 0xbf, 0xfd, 0xe9, 0x00, 0x08, 0x0c, 0xf8,
  0x05, 0xee, 0xee, 0x01, 0x12, 0x11, 0x10, 0x18, 0x0c, 0x81, 0x0d, 0xda,
  0xe7, 0x0d, 0xda, 0xe0, 0xe9, 0x92, 0x0d, 0xfb, 0xe9, 0x0a, 0xec, 0x04,
  0xf6, 0xf9, 0x07, 0x0a, 0xe6, 0xfe, 0xf5, 0x07, 0xf7, 0xd2, 0x81, 0xdb,
  0xf1, 0x28, 0xcf, 0xf9, 0xb2, 0xba, 0x89, 0xd9, 0xf9, 0xf6, 0xfe, 0xca,
  0xdf, 0xa3, 0xb4, 0xa0, 0xd5, 0x0c, 0xf1, 0xb6, 0xe4, 0xb6, 0xe0, 0xdd,
  0xea, 0x13, 0x11, 0xd3, 0xb2, 0xcb, 0xdb, 0xf3, 0x07, 0xfd, 0x04, 0xd9,
  0xac, 0xbd, 0xc2, 0xf0, 0xf0, 0xdf, 0x31, 0xb5, 0xfd, 0xc2, 0x01, 0x14,
  0x19, 0x46, 0x23, 0xd1, 0x8a, 0xb0, 0xf4, 0x0c, 0x36, 0x24, 0x2e, 0xb1,
  0xc2, 0xc3, 0x02, 0x0b, 0x18, 0x1c, 0x15, 0xb6, 0xdf, 0xb7, 0xb9, 0xaf,
  0x38, 0xb9, 0x41, 0xe0, 0xec, 0x35, 0xad, 0xe5, 0x33, 0xe3, 0x20, 0xbe,
  0xbb, 0x18, 0xd0, 0xc4, 0xe2, 0xcc, 0x0d, 0xdf, 0x99, 0xe2, 0xa6, 0xa2,
  0x33, 0xf6, 0x0e, 0xcc, 0xbd, 0x11, 0xcc, 0x98, 0x34, 0xdf, 0x33, 0xe5,
  0x02, 0x12, 0x9c, 0x94, 0xf8, 0xc0, 0x0f, 0xa9, 0xac, 0xb3, 0x08, 0xb5,
  0x77, 0x09, 0x3f, 0xa7, 0xa9, 0xdf, 0xf7, 0xd4, 0x5d, 0x1b, 0x39, 0x97,
  0xb5, 0xf1, 0x00, 0xed, 0x7f, 0x49, 0x57, 0xbb, 0xa3, 0x93, 0xd6, 0xd1,
  0x15, 0xc4, 0xb5, 0xe7, 0xee, 0xe8, 0x5e, 0x69, 0xf9, 0xc0, 0xb7, 0x00,
  0xf5, 0x8e, 0xec, 0x82, 0xba, 0x14, 0xce, 0xc5, 0x0a, 0x10, 0xc2, 0x0e,
  0xca, 0xa3, 0xc2, 0x31, 0x1a, 0x40, 0x2a, 0x0a, 0xc1, 0x02, 0x07, 0x22,
  0xf1, 0xbf, 0x36, 0x0a, 0xdd, 0x17, 0x32, 0x09, 0x17, 0x7c, 0xfd, 0x5b,
  0x0f, 0xf8, 0xff, 0x11, 0x44, 0x0e, 0x81, 0xab, 0x0f, 0x14, 0x4b, 0x13,
  0x05, 0xa7, 0x50, 0x38, 0x0b, 0xcf, 0x59, 0xe0, 0xe9, 0xec, 0x81, 0x8c,
  0x15, 0xba, 0x1b, 0xbf, 0xb7, 0xf4, 0xc6, 0xc8, 0x04, 0xc5, 0xf7, 0xd6,
  0xc1, 0x73, 0xbf, 0x28, 0xeb, 0x0b, 0xe5, 0x1c, 0xf8, 0x08, 0x19, 0xed,
  0x0b, 0xcc, 0xfb, 0xc9, 0x20, 0x09, 0x12, 0x08, 0xf9, 0xfd, 0x25, 0xff,
  0x0b, 0x6c, 0xfe, 0x43, 0xd9, 0x07, 0x02, 0x47, 0xe0, 0xc1, 0x34, 0x12,
  0xfc, 0xd0, 0x06, 0xe3, 0xe2, 0xe1, 0xdc, 0xc6, 0x00, 0xf7, 0xdb, 0x25,
  0xef, 0x34, 0xd5, 0x60, 0x00, 0xcd, 0xe2, 0x4a, 0xbc, 0x5c, 0xc5, 0xf1,
  0xce, 0xdc, 0xfc, 0xe1, 0xe1, 0x9e, 0x1d, 0x1e, 0xdf, 0x6a, 0x03, 0x1e,
  0x13, 0xe1, 0xc5, 0x02, 0xd4, 0x99, 0xfb, 0x01, 0xac, 0x1a, 0x06, 0x06,
  0x26, 0x94, 0x01, 0xf1, 0xcc, 0x4a, 0xef, 0xdc, 0xc6, 0x68, 0x01, 0x16,
  0x42, 0x8a, 0x25, 0x46, 0xc7, 0x05, 0xd4, 0x5d, 0xee, 0xb9, 0x0e, 0xb5,
  0x37, 0xc1, 0xe7, 0xc5, 0xd0, 0x1d, 0xd6, 0xfa, 0x04, 0xcb, 0x12, 0xcb,
  0x26, 0x1c, 0x2e, 0x3e, 0xda, 0x7f, 0xcd, 0x53, 0x0b, 0xe3, 0x2b, 0xbf,
  0x34, 0xe8, 0x1d, 0xee, 0xef, 0xc1, 0x31, 0xc0, 0x52, 0xda, 0x23, 0xe0,
  0xf2, 0xc8, 0x3a, 0xa5, 0x3a, 0xb3, 0x2d, 0x11, 0x0a, 0xe9, 0x14, 0xa3,
  0xed, 0xe6, 0xfc, 0xf6, 0xd9, 0xda, 0x17, 0x81, 0x20, 0xfc, 0x1a, 0xe7,
  0xe4, 0xda, 0x18, 0xa1, 0x21, 0xe0, 0x0a, 0xe8, 0xf8, 0x0c, 0xd2, 0xc5,
  0xf2, 0xf0, 0xd2, 0xe5, 0xcc, 0xe0, 0x0c, 0xcb, 0xfc, 0x08, 0xe1, 0xda,
  0xf7, 0xea, 0xf3, 0xb9, 0xea, 0x0a, 0xef, 0xd1, 0xd4, 0xdd, 0xf9, 0xda,
  0x2e, 0x69, 0xf2, 0xf3, 0x19, 0xb8, 0xea, 0x44, 0x1b, 0x25, 0x25, 0x10,
  0xdd, 0xae, 0xf2, 0x13, 0xff, 0x18, 0xf3, 0x23, 0xdb, 0x05, 0xe4, 0x9f,
  0xc9, 0x25, 0xf3, 0xeb, 0xcb, 0xef, 0x1f, 0x01, 0xe1, 0x5a, 0x10, 0xea,
  0xf1, 0xde, 0xea, 0x50, 0xf2, 0xfd, 0xe3, 0x3c, 0xcd, 0x19, 0xc8, 0x7f,
  0xe7, 0xd7, 0xf2, 0x20, 0xfc, 0x40, 0xd9, 0x4f, 0xd3, 0xc8, 0x0f, 0x2b,
  0x22, 0x4b, 0xd3, 0xa0, 0xdb, 0x48, 0x1f, 0x2c, 0x41, 0xa6, 0xf7, 0x55,
  0xd6, 0x29, 0xd5, 0x07, 0x41, 0xb4, 0xf9, 0x1a, 0xa5, 0x0d, 0xa8, 0x3e,
  0x45, 0xc4, 0xe7, 0x2a, 0xb7, 0xed, 0xce, 0xf7, 0x47, 0x92, 0xfb, 0xf1,
  0x0e, 0x28, 0xe2, 0x31, 0x28, 0xab, 0xf7, 0xf0, 0xd8, 0x2c, 0xd7, 0x28,
  0x09, 0xa4, 0xba, 0x0d, 0xd5, 0x23, 0xa3, 0xf2, 0x4b, 0x10, 0xb6, 0x81,
  0xcc, 0x39, 0xf8, 0x1d, 0x17, 0xb4, 0xac, 0xac, 0xe1, 0x1a, 0xf9, 0x0e,
  0x2d, 0xe3, 0xb2, 0xa8, 0xd9, 0x0f, 0x00, 0xfb, 0xc2, 0xea, 0x1b, 0x2b,
  0xf8, 0x12, 0xd9, 0xf9, 0xf6, 0xf3, 0x24, 0x35, 0x12, 0x24, 0xd5, 0xfc,
  0xf1, 0xf6, 0x2e, 0x3d, 0x0d, 0x11, 0xe2, 0x38, 0xab, 0x27, 0x05, 0xf1,
  0xf8, 0xf6, 0x1a, 0xd9, 0xdc, 0x23, 0xfb, 0xd4, 0x08, 0x0b, 0xe6, 0xf0,
  0x08, 0x35, 0x13, 0xee, 0x04, 0x25, 0xd3, 0x06, 0x81, 0x15, 0xea, 0x33,
  0x8f, 0xc1, 0xb9, 0xd8, 0xcd, 0x0b, 0xdc, 0x42, 0xa0, 0xd2, 0xcc, 0x01,
  0xf6, 0x09, 0xf1, 0x13, 0xc8, 0xe5, 0xb2, 0x08, 0x02, 0xfd, 0xff, 0xff,
  0x04, 0x00, 0x00, 0x00, 0x20, 0x01, 0x00, 0x00, 0xb8, 0x0d, 0xc7, 0xbd,
  0x18, 0x09, 0x61, 0x3d, 0x6d, 0x74, 0xc5, 0xba, 0x23, 0x65, 0x14, 0x3f,
  0x13, 0xc8, 0x6f, 0x3e, 0xeb, 0xb5, 0x07, 0xbe, 0x89, 0x60, 0x08, 0x3e,
  0x3a, 0x52, 0x07, 0xbd, 0x84, 0xc9, 0x8f, 0xbe, 0x36, 0x91, 0x12, 0xc0,
  0xde, 0x98, 0xd9, 0xbf, 0x68, 0x15, 0x4c, 0x40, 0x4f, 0x2c, 0x00, 0xc0,
  0xda, 0xff, 0x8f, 0x3e, 0x45, 0x2b, 0x44, 0x40, 0x18, 0xa1, 0xb8, 0xbe,
  0x8a, 0xb9, 0xe1, 0xbe, 0xf7, 0x80, 0x08, 0x3f, 0x97, 0x18, 0xd1, 0xbd,
  0x93, 0x1b, 0x85, 0xbe, 0xb7, 0xd3, 0xd3, 0xbe, 0x14, 0x38, 0xa6, 0xbf,
  0x50, 0x8a, 0xb6, 0xbf, 0xff, 0x99, 0xe7, 0xbe, 0xed, 0x21, 0xa6, 0x3f,
  0xae, 0x66, 0xbd, 0x3f, 0x89, 0xaf, 0xee, 0x3e, 0x02, 0x9a, 0x20, 0xbf,
  0x7e, 0xf3, 0xc6, 0xbf, 0xdf, 0x9a, 0xa3, 0x3f, 0x65, 0xb7, 0x5d, 0xbe,
  0xd6, 0xfb, 0xdd, 0xbf, 0x05, 0xd1, 0x6a, 0xbf, 0x9c, 0xb0, 0x54, 0x3f,
  0x52, 0x20, 0xa1, 0x3f, 0x45, 0x1e, 0xea, 0x3f, 0x57, 0xc9, 0x5c, 0x3e,
  0xa1, 0xb0, 0xbd, 0x3e, 0xda, 0xc7, 0x08, 0xbf, 0x95, 0xe9, 0x71, 0xbe,
  0x48, 0x31, 0x90, 0xbd, 0x2c, 0x81, 0xdc, 0xbe, 0x8f, 0xb8, 0xba, 0xbc,
  0xb4, 0x03, 0x83, 0x3e, 0x39, 0x01, 0xc1, 0xbe, 0x24, 0xe9, 0xef, 0x3f,
  0x4e, 0x2a, 0xd4, 0x3f, 0x89, 0x5d, 0x73, 0xbf, 0x15, 0xdb, 0x35, 0x3f,
  0x70, 0x8c, 0x3c, 0x3f, 0x4c, 0xb0, 0xa8, 0xbf, 0x38, 0x2e, 0x1b, 0xc0,
  0x6d, 0xab, 0x7b, 0xbf, 0xc0, 0x35, 0x9a, 0x3f, 0xe6, 0xb1, 0xc3, 0xbf,
  0x0e, 0x0c, 0x96, 0x3e, 0x29, 0x82, 0x20, 0x3f, 0x67, 0x60, 0x9b, 0x3e,
  0x0c, 0xe2, 0x7d, 0xbf, 0x7f, 0x21, 0x9a, 0x3f, 0x34, 0xda, 0x21, 0x3f,
  0x37, 0x99, 0x02, 0xbf, 0x63, 0x05, 0x49, 0xbf, 0x75, 0xe3, 0x33, 0x3d,
  0xfd, 0x4a, 0xe2, 0xbc, 0x9b, 0xbc, 0x06, 0xbd, 0x65, 0x23, 0x87, 0xbc,
  0x14, 0xf3, 0x10, 0x3d, 0x6b, 0xc2, 0x29, 0x3c, 0xa8, 0xb5, 0xa1, 0x3b,
  0xcd, 0xf1, 0x9c, 0x3e, 0x02, 0x67, 0x0d, 0x3e, 0x2e, 0xfe, 0xff, 0xff,
  0x04, 0x00, 0x00, 0x00, 0x80, 0x00, 0x00, 0x00, 0xfb, 0x99, 0xec, 0xbf,
  0x8f, 0x50, 0x5c, 0x3e, 0x0e, 0x59, 0x75, 0xbf, 0x7f, 0x0f, 0xb8, 0xbf,
  0x47, 0xed, 0x02, 0x40, 0x3a, 0x01, 0x9a, 0xbf, 0xcd, 0xbc, 0x02, 0xc0,
  0x2f, 0x46, 0xa0, 0x3f, 0xf0, 0x63, 0x13, 0x3e, 0x57, 0xd6, 0x02, 0xc0,
  0x99, 0xb1, 0xa5, 0xbf, 0x7a, 0xdc, 0xde, 0x3f, 0xd8, 0x57, 0x0f, 0xc0,
  0x01, 0xb9, 0x1d, 0x40, 0x36, 0x4c, 0x6c, 0x40, 0x89, 0x0d, 0x46, 0x40,
  0x40, 0x69, 0x22, 0xbc, 0x73, 0x5e, 0x89, 0x3f, 0x2a, 0xbe, 0x12, 0x40,
  0x10, 0xda, 0x8c, 0xbc, 0xde, 0xe0, 0xd5, 0x3f, 0x0a, 0x58, 0xb5, 0x3f,
  0x54, 0x33, 0x75, 0x3f, 0x28, 0x23, 0x13, 0x3f, 0xb9, 0xa5, 0x96, 0xbf,
  0xd2, 0x15, 0x88, 0xbe, 0x97, 0x29, 0x85, 0x3f, 0x10, 0xea, 0x41, 0x40,
  0x94, 0x90, 0x03, 0xbe, 0x19, 0xbb, 0x27, 0x40, 0x50, 0xfe, 0x49, 0xbe,
  0x46, 0x71, 0x44, 0x40, 0xba, 0xfe, 0xff, 0xff, 0x04, 0x00, 0x00, 0x00,
  0x40, 0x00, 0x00, 0x00, 0x00, 0xd8, 0xb2, 0x3e, 0xaa, 0x1d, 0xae, 0x3e,
  0xdd, 0xa1, 0xa2, 0xbe, 0x26, 0xee, 0x44, 0xbf, 0x26, 0x94, 0x6c, 0xbe,
  0x05, 0xee, 0x8c, 0x3e, 0x61, 0xbc, 0xba, 0x3e, 0xf2, 0xd4, 0x09, 0x3e,
  0x08, 0x24, 0x6b, 0x3d, 0xc0, 0x05, 0x61, 0x3c, 0x6a, 0x94, 0x3c, 0x3e,
  0x80, 0x47, 0x97, 0x3c, 0x24, 0x86, 0xea, 0x3e, 0x63, 0xac, 0x6b, 0xbf,
  0x46, 0xb8, 0x2f, 0x3e, 0xa0, 0x4a, 0x61, 0xbd, 0x06, 0xff, 0xff, 0xff,
  0x04, 0x00, 0x00, 0x00, 0x20, 0x00, 0x00, 0x00, 0x53, 0x1c, 0x06, 0x3e,
  0x8f, 0xe2, 0x10, 0xbe, 0x73, 0x16, 0x6d, 0xbd, 0x05, 0x00, 0x82, 0x3e,
  0x56, 0xcd, 0xe4, 0xbd, 0x8f, 0xe8, 0x58, 0xbe, 0xbf, 0x86, 0xa0, 0xbd,
  0x6d, 0xb1, 0x1b, 0xbd, 0x32, 0xff, 0xff, 0xff, 0x04, 0x00, 0x00, 0x00,
  0x10, 0x00, 0x00, 0x00, 0x01, 0x00, 0x00, 0x00, 0x42, 0x00, 0x00, 0x00,
  0x04, 0x01, 0x00, 0x00, 0x01, 0x00, 0x00, 0x00, 0x4e, 0xff, 0xff, 0xff,
  0x04, 0x00, 0x00, 0x00, 0x10, 0x00, 0x00, 0x00, 0x00, 0x00, 0x00, 0x00,
  0x03, 0x00, 0x00, 0x00, 0x01, 0x00, 0x00, 0x00, 0x02, 0x00, 0x00, 0x00,
  0x6a, 0xff, 0xff, 0xff, 0x04, 0x00, 0x00, 0x00, 0x10, 0x00, 0x00, 0x00,
  0x00, 0x00, 0x00, 0x00, 0x02, 0x00, 0x00, 0x00, 0x03, 0x00, 0x00, 0x00,
  0x01, 0x00, 0x00, 0x00, 0x86, 0xff, 0xff, 0xff, 0x04, 0x00, 0x00, 0x00,
  0x18, 0x00, 0x00, 0x00, 0x98, 0xf4, 0xb9, 0x3d, 0x9e, 0x7c, 0x1a, 0x3e,
  0xf5, 0x0c, 0x59, 0xbc, 0x33, 0x43, 0x87, 0x3e, 0xb4, 0xf8, 0x01, 0xbf,
  0xcb, 0xaa, 0x34, 0x3d, 0xaa, 0xff, 0xff, 0xff, 0x04, 0x00, 0x00, 0x00,
  0x08, 0x00, 0x00, 0x00, 0x02, 0x00, 0x00, 0x00, 0x03, 0x00, 0x00, 0x00,
  0xbe, 0xff, 0xff, 0xff, 0x04, 0x00, 0x00, 0x00, 0x08, 0x00, 0x00, 0x00,
  0xff, 0xff, 0xff, 0xff, 0x20, 0x00, 0x00, 0x00, 0xd2, 0xff, 0xff, 0xff,
  0x04, 0x00, 0x00, 0x00, 0x20, 0x00, 0x00, 0x00, 0x00, 0x00, 0x00, 0x00,
  0x00, 0x00, 0x00, 0x00, 0x00, 0x00, 0x00, 0x00, 0x00, 0x00, 0x00, 0x00,
  0x01, 0x00, 0x00, 0x00, 0x01, 0x00, 0x00, 0x00, 0x01, 0x00, 0x00, 0x00,
  0x01, 0x00, 0x00, 0x00, 0x00, 0x00, 0x06, 0x00, 0x08, 0x00, 0x04, 0x00,
  0x06, 0x00, 0x00, 0x00, 0x04, 0x00, 0x00, 0x00, 0x00, 0x03, 0x00, 0x00,
  0x72, 0x23, 0xf9, 0x3d, 0x57, 0xa0, 0x09, 0xbf, 0xd0, 0x8a, 0x48, 0xbf,
  0x14, 0x71, 0xe2, 0xbf, 0x24, 0x52, 0xd9, 0x3d, 0x17, 0x80, 0x14, 0xbf,
  0x10, 0x70, 0xc7, 0xbf, 0x6c, 0x43, 0x88, 0x3b, 0xbe, 0x41, 0xba, 0x3f,
  0x06, 0xb7, 0x4a, 0xbf, 0x15, 0xfa, 0xde, 0xbe, 0xbf, 0x41, 0xe2, 0x3e,
  0x8c, 0xa7, 0xb4, 0x3c, 0x6c, 0xad, 0x9b, 0xbe, 0x6a, 0xcc, 0x37, 0xbf,
  0xe7, 0xd0, 0x80, 0xbf, 0xcd, 0xad, 0xae, 0xbd, 0xee, 0xf9, 0x23, 0x3f,
  0xf1, 0x44, 0x0a, 0x3f, 0x87, 0xbe, 0x59, 0x3d, 0x4f, 0x06, 0xa1, 0xbe,
  0x6c, 0x55, 0x8b, 0xba, 0xfc, 0x70, 0x7b, 0x3d, 0x6e, 0x46, 0xbc, 0x3f,
  0xc6, 0x0e, 0x62, 0xbe, 0xb4, 0xc8, 0xc3, 0xbd, 0x23, 0xd1, 0x87, 0xbf,
  0x9d, 0xa2, 0x5a, 0xbd, 0x9e, 0xa4, 0x49, 0xbf, 0xa2, 0x51, 0xb6, 0x3e,
  0x36, 0xcb, 0x29, 0x3f, 0x8d, 0xeb, 0x0a, 0x3f, 0x27, 0x94, 0x4a, 0x3e,
  0x86, 0x88, 0x98, 0x3f, 0x0d, 0x02, 0x33, 0xbf, 0x94, 0x47, 0x8a, 0x3f,
  0x73, 0xfa, 0xba, 0xbf, 0x5a, 0x68, 0xaf, 0x3f, 0x66, 0x27, 0x78, 0x3f,
  0xd3, 0x83, 0x4f, 0xbf, 0x55, 0xe9, 0x71, 0xbe, 0x26, 0x17, 0x2d, 0xbf,
  0xa7, 0xf7, 0x28, 0xbf, 0xab, 0x1a, 0x13, 0x3e, 0xfe, 0x2f, 0x96, 0x3c,
  0x6f, 0x77, 0x8c, 0x3f, 0xcd, 0xd2, 0x14, 0xbf, 0x27, 0x39, 0x4a, 0xbf,
  0xa6, 0xae, 0x1f, 0xbe, 0x75, 0x5d, 0xd7, 0xbe, 0x7e, 0x33, 0x67, 0x3f,
  0x82, 0xd2, 0xda, 0x3e, 0xb5, 0xa4, 0xae, 0xbf, 0xb8, 0x7c, 0x43, 0xbf,
  0xd8, 0x54, 0x1a, 0xbf, 0x55, 0x01, 0x5e, 0xbe, 0x93, 0x41, 0xcc, 0xbe,
  0xc9, 0xbc, 0x3e, 0x3f, 0xb6, 0x8d, 0xda, 0xbf, 0x83, 0x78, 0x4f, 0xbe,
  0x96, 0x38, 0x3f, 0x3f, 0x11, 0x18, 0xda, 0xbf, 0x50, 0x6c, 0x1a, 0xbf,
  0xf2, 0x6a, 0xbb, 0x3e, 0x19, 0x6c, 0x60, 0x3e, 0x6a, 0xc5, 0xb6, 0x3e,
  0x21, 0x07, 0xa3, 0x3f, 0xf2, 0xa0, 0x28, 0x3f, 0xd9, 0xec, 0x84, 0x3e,
  0xa6, 0xac, 0x72, 0x3e, 0xd5, 0xef, 0xe3, 0x3d, 0x04, 0xe0, 0xb1, 0xbf,
  0x63, 0xea, 0x82, 0x3d, 0x33, 0xbe, 0x83, 0x3f, 0xd4, 0x4a, 0x81, 0xbf,
  0x0c, 0xab, 0x9b, 0xbe, 0xb6, 0x48, 0xa3, 0x3e, 0x89, 0x4f, 0x36, 0xbf,
  0x49, 0x77, 0xa9, 0xbe, 0x97, 0x90, 0xc2, 0xbe, 0x24, 0x13, 0x92, 0x3d,
  0x60, 0xc9, 0x06, 0x3e, 0x01, 0xfd, 0x7b, 0xbf, 0x79, 0x25, 0x59, 0xbf,
  0xf4, 0x49, 0x62, 0x3f, 0xd0, 0x72, 0x6c, 0xbf, 0x03, 0xa8, 0x85, 0x3f,
  0x91, 0xbc, 0x74, 0xbc, 0x38, 0xe1, 0x87, 0xbf, 0x4b, 0xaa, 0xbc, 0xbe,
  0xaf, 0xdf, 0xbe, 0xbe, 0xe8, 0x74, 0x05, 0x3e, 0xa3, 0x0b, 0xac, 0xbf,
  0x83, 0x65, 0xa2, 0xbe, 0x69, 0x2d, 0x40, 0x3e, 0x3a, 0xd6, 0x33, 0xbf,
  0xb2, 0xc3, 0x95, 0x3e, 0xbb, 0x38, 0xc5, 0xbf, 0xde, 0x43, 0xd4, 0xbe,
  0x68, 0xb3, 0x32, 0xbf, 0x2f, 0x88, 0xc8, 0xbe, 0xeb, 0x12, 0xbc, 0xbf,
  0x68, 0xa1, 0x18, 0xbf, 0x47, 0x96, 0x97, 0xbe, 0x49, 0xa5, 0x9e, 0xbf,
  0x28, 0x88, 0x24, 0x3f, 0xfe, 0x07, 0xac, 0x3f, 0x60, 0x77, 0xb4, 0x3e,
  0x0e, 0x86, 0x94, 0x3e, 0xc4, 0x84, 0xbb, 0xbf, 0x9e, 0x69, 0xb2, 0x3e,
  0xd8, 0x81, 0x86, 0x3e, 0xe5, 0xcb, 0xaa, 0x3e, 0xe4, 0x77, 0xa7, 0xbf,
  0x2c, 0x90, 0xa6, 0xbf, 0xc0, 0x50, 0x8c, 0x3e, 0x8f, 0x31, 0xc1, 0xbe,
  0x44, 0x6b, 0xa1, 0xbd, 0x91, 0x43, 0xa7, 0xbf, 0x57, 0xeb, 0xc1, 0xbf,
  0x25, 0xf6, 0xeb, 0x3f, 0x1f, 0x41, 0x1a, 0xbf, 0x9f, 0xdf, 0x88, 0x3f,
  0x7d, 0x7a, 0xaa, 0x3e, 0xc2, 0x69, 0x1a, 0x3f, 0x91, 0xf6, 0x68, 0x3f,
  0x54, 0x72, 0xa3, 0x3e, 0xac, 0x38, 0xa8, 0xbf, 0x02, 0xce, 0x4f, 0xbe,
  0x4c, 0xc5, 0x2c, 0xbe, 0xba, 0xe3, 0x04, 0xbf, 0x41, 0x4b, 0xb1, 0xbe,
  0x9a, 0xfd, 0xd7, 0x3e, 0x8e, 0x54, 0x9f, 0xbe, 0x49, 0x70, 0xa4, 0xbe,
  0x7c, 0x3e, 0x3f, 0xbd, 0x58, 0x1a, 0x22, 0xbf, 0x54, 0x00, 0xb3, 0xbe,
  0x40, 0x73, 0xcd, 0x3e, 0x0c, 0xdb, 0xa2, 0xbe, 0x40, 0xa2, 0xc9, 0x3c,
  0x71, 0x98, 0xb2, 0x3e, 0xf8, 0x78, 0x37, 0xbc, 0x31, 0xbe, 0xbb, 0x3e,
  0xc0, 0x59, 0x93, 0xbe, 0x68, 0x5d, 0x65, 0xbe, 0x54, 0x75, 0x91, 0xbe,
  0xb6, 0x51, 0xfa, 0x3e, 0x7e, 0x10, 0x0f, 0x3d, 0x38, 0xe1, 0xb8, 0xbe,
  0xc7, 0x22, 0xa9, 0xbe, 0xcc, 0x39, 0x1b, 0xbf, 0xae, 0x5d, 0x1d, 0xbf,
  0x0a, 0x5a, 0x25, 0x3f, 0xb9, 0x16, 0x25, 0x3f, 0x38, 0x99, 0x6a, 0xbf,
  0xc5, 0x4b, 0x8a, 0x3e, 0x33, 0xc9, 0xe1, 0xbd, 0xf5, 0x73, 0xa8, 0xbe,
  0x63, 0x10, 0x2c, 0x3f, 0x21, 0xae, 0xf5, 0xbf, 0x23, 0x18, 0xb7, 0x3e,
  0xb9, 0x79, 0x43, 0x3e, 0x1e, 0x10, 0x0d, 0x3f, 0x63, 0xd1, 0x72, 0x3e,
  0xf2, 0x88, 0xf6, 0x3e, 0x48, 0xa2, 0x31, 0x3f, 0x4d, 0x3a, 0x29, 0x3f,
  0xa1, 0x58, 0x33, 0xbf, 0x24, 0x5c, 0x6b, 0xbf, 0x81, 0x71, 0x26, 0xbf,
  0x23, 0xe5, 0xd0, 0xbf, 0x1a, 0x49, 0x04, 0xc0, 0xd1, 0x48, 0xce, 0x3e,
  0x79, 0x19, 0x5d, 0x3f, 0xa8, 0xcb, 0x3d, 0x3f, 0xb5, 0x47, 0xcd, 0xbf,
  0x3c, 0xc2, 0x1c, 0x3e, 0x71, 0x0c, 0xc5, 0x3e, 0x5d, 0xc0, 0x8e, 0xbf,
  0xd8, 0xd5, 0xdc, 0x3e, 0xd9, 0x70, 0x37, 0x3f, 0xec, 0x15, 0x5d, 0x3e,
  0xd8, 0x61, 0x14, 0xbf, 0x34, 0xb8, 0x37, 0xbc, 0xc8, 0xdb, 0x12, 0xbf,
  0xcd, 0x34, 0x0e, 0x3f, 0x71, 0x5d, 0x87, 0x3f, 0xb4, 0xfb, 0xf1, 0x3c,
  0x5b, 0xab, 0x85, 0x3e, 0xe1, 0x10, 0xb1, 0xbf, 0x05, 0xb5, 0x18, 0xbd,
  0xa4, 0xf0, 0xff, 0xff, 0xa8, 0xf0, 0xff, 0xff, 0x0f, 0x00, 0x00, 0x00,
  0x4d, 0x4c, 0x49, 0x52, 0x20, 0x43, 0x6f, 0x6e, 0x76, 0x65, 0x72, 0x74,
  0x65, 0x64, 0x2e, 0x00, 0x01, 0x00, 0x00, 0x00, 0x14, 0x00, 0x00, 0x00,
  0x00, 0x00, 0x0e, 0x00, 0x18, 0x00, 0x14, 0x00, 0x10, 0x00, 0x0c, 0x00,
  0x08, 0x00, 0x04, 0x00, 0x0e, 0x00, 0x00, 0x00, 0x14, 0x00, 0x00, 0x00,
  0x1c, 0x00, 0x00, 0x00, 0xe4, 0x03, 0x00, 0x00, 0xe8, 0x03, 0x00, 0x00,
  0xec, 0x03, 0x00, 0x00, 0x04, 0x00, 0x00, 0x00, 0x6d, 0x61, 0x69, 0x6e,
  0x00, 0x00, 0x00, 0x00, 0x11, 0x00, 0x00, 0x00, 0x9c, 0x03, 0x00, 0x00,
  0x64, 0x03, 0x00, 0x00, 0x04, 0x03, 0x00, 0x00, 0xa0, 0x02, 0x00, 0x00,
  0x78, 0x02, 0x00, 0x00, 0x48, 0x02, 0x00, 0x00, 0x20, 0x02, 0x00, 0x00,
  0xd8, 0x01, 0x00, 0x00, 0x94, 0x01, 0x00, 0x00, 0x6c, 0x01, 0x00, 0x00,
  0x3c, 0x01, 0x00, 0x00, 0x14, 0x01, 0x00, 0x00, 0xcc, 0x00, 0x00, 0x00,
  0xa4, 0x00, 0x00, 0x00, 0x64, 0x00, 0x00, 0x00, 0x3c, 0x00, 0x00, 0x00,
  0x04, 0x00, 0x00, 0x00, 0x46, 0xfd, 0xff, 0xff, 0x14, 0x00, 0x00, 0x00,
  0x00, 0x00, 0x00, 0x08, 0x10, 0x00, 0x00, 0x00, 0x14, 0x00, 0x00, 0x00,
  0x06, 0x00, 0x00, 0x00, 0x5c, 0xf1, 0xff, 0xff, 0x01, 0x00, 0x00, 0x00,
  0x1f, 0x00, 0x00, 0x00, 0x03, 0x00, 0x00, 0x00, 0x1e, 0x00, 0x00, 0x00,
  0x01, 0x00, 0x00, 0x00, 0x05, 0x00, 0x00, 0x00, 0x1a, 0xfd, 0xff, 0xff,
  0x0c, 0x00, 0x00, 0x00, 0x10, 0x00, 0x00, 0x00, 0x01, 0x00, 0x00, 0x00,
  0x01, 0x00, 0x00, 0x00, 0x1e, 0x00, 0x00, 0x00, 0x02, 0x00, 0x00, 0x00,
  0x1d, 0x00, 0x00, 0x00, 0x03, 0x00, 0x00, 0x00, 0x9e, 0xfd, 0xff, 0xff,
  0x1c, 0x00, 0x00, 0x00, 0x00, 0x00, 0x00, 0x1b, 0x1c, 0x00, 0x00, 0x00,
  0x20, 0x00, 0x00, 0x00, 0x05, 0x00, 0x00, 0x00, 0x00, 0x00, 0x06, 0x00,
  0x08, 0x00, 0x07, 0x00, 0x06, 0x00, 0x00, 0x00, 0x00, 0x00, 0x00, 0x01,
  0x01, 0x00, 0x00, 0x00, 0x1d, 0x00, 0x00, 0x00, 0x02, 0x00, 0x00, 0x00,
  0x1c, 0x00, 0x00, 0x00, 0x04, 0x00, 0x00, 0x00, 0x7a, 0xfd, 0xff, 0xff,
  0x0c, 0x00, 0x00, 0x00, 0x10, 0x00, 0x00, 0x00, 0x04, 0x00, 0x00, 0x00,
  0x01, 0x00, 0x00, 0x00, 0x1c, 0x00, 0x00, 0x00, 0x02, 0x00, 0x00, 0x00,
  0x1b, 0x00, 0x00, 0x00, 0x07, 0x00, 0x00, 0x00, 0xfe, 0xfd, 0xff, 0xff,
  0x14, 0x00, 0x00, 0x00, 0x00, 0x00, 0x00, 0x01, 0x20, 0x00, 0x00, 0x00,
  0x24, 0x00, 0x00, 0x00, 0x02, 0x00, 0x00, 0x00, 0xf0, 0xfd, 0xff, 0xff,
  0x00, 0x00, 0x00, 0x01, 0x01, 0x00, 0x00, 0x00, 0x01, 0x00, 0x00, 0x00,
  0x00, 0x00, 0x00, 0x01, 0x01, 0x00, 0x00, 0x00, 0x1b, 0x00, 0x00, 0x00,
  0x03, 0x00, 0x00, 0x00, 0x1a, 0x00, 0x00, 0x00, 0x0e, 0x00, 0x00, 0x00,
  0x0b, 0x00, 0x00, 0x00, 0xe2, 0xfd, 0xff, 0xff, 0x0c, 0x00, 0x00, 0x00,
  0x10, 0x00, 0x00, 0x00, 0x04, 0x00, 0x00, 0x00, 0x01, 0x00, 0x00, 0x00,
  0x1a, 0x00, 0x00, 0x00, 0x02, 0x00, 0x00, 0x00, 0x19, 0x00, 0x00, 0x00,
  0x06, 0x00, 0x00, 0x00, 0xd6, 0xfd, 0xff, 0xff, 0x10, 0x00, 0x00, 0x00,
  0x00, 0x00, 0x00, 0x16, 0x0c, 0x00, 0x00, 0x00, 0x10, 0x00, 0x00, 0x00,
  0x78, 0xf2, 0xff, 0xff, 0x01, 0x00, 0x00, 0x00, 0x19, 0x00, 0x00, 0x00,
  0x02, 0x00, 0x00, 0x00, 0x18, 0x00, 0x00, 0x00, 0x02, 0x00, 0x00, 0x00,
  0x32, 0xfe, 0xff, 0xff, 0x0c, 0x00, 0x00, 0x00, 0x10, 0x00, 0x00, 0x00,
  0x04, 0x00, 0x00, 0x00, 0x01, 0x00, 0x00, 0x00, 0x18, 0x00, 0x00, 0x00,
  0x02, 0x00, 0x00, 0x00, 0x17, 0x00, 0x00, 0x00, 0x07, 0x00, 0x00, 0x00,
  0xb6, 0xfe, 0xff, 0xff, 0x14, 0x00, 0x00, 0x00, 0x00, 0x00, 0x00, 0x05,
  0x24, 0x00, 0x00, 0x00, 0x28, 0x00, 0x00, 0x00, 0x03, 0x00, 0x00, 0x00,
  0x06, 0xff, 0xff, 0xff, 0x02, 0x00, 0x00, 0x00, 0x02, 0x00, 0x00, 0x00,
  0x02, 0x00, 0x00, 0x00, 0x02, 0x00, 0x00, 0x00, 0x00, 0x00, 0x00, 0x01,
  0x01, 0x00, 0x00, 0x00, 0x17, 0x00, 0x00, 0x00, 0x01, 0x00, 0x00, 0x00,
  0x16, 0x00, 0x00, 0x00, 0xf6, 0xfe, 0xff, 0xff, 0x14, 0x00, 0x00, 0x00,
  0x00, 0x00, 0x00, 0x01, 0x20, 0x00, 0x00, 0x00, 0x24, 0x00, 0x00, 0x00,
  0x02, 0x00, 0x00, 0x00, 0xe8, 0xfe, 0xff, 0xff, 0x00, 0x00, 0x00, 0x01,
  0x01, 0x00, 0x00, 0x00, 0x01, 0x00, 0x00, 0x00, 0x00, 0x00, 0x00, 0x01,
  0x01, 0x00, 0x00, 0x00, 0x16, 0x00, 0x00, 0x00, 0x03, 0x00, 0x00, 0x00,
  0x15, 0x00, 0x00, 0x00, 0x0d, 0x00, 0x00, 0x00, 0x0a, 0x00, 0x00, 0x00,
  0xda, 0xfe, 0xff, 0xff, 0x0c, 0x00, 0x00, 0x00, 0x10, 0x00, 0x00, 0x00,
  0x04, 0x00, 0x00, 0x00, 0x01, 0x00, 0x00, 0x00, 0x15, 0x00, 0x00, 0x00,
  0x02, 0x00, 0x00, 0x00, 0x14, 0x00, 0x00, 0x00, 0x06, 0x00, 0x00, 0x00,
  0xce, 0xfe, 0xff, 0xff, 0x10, 0x00, 0x00, 0x00, 0x00, 0x00, 0x00, 0x16,
  0x0c, 0x00, 0x00, 0x00, 0x10, 0x00, 0x00, 0x00, 0x70, 0xf3, 0xff, 0xff,
  0x01, 0x00, 0x00, 0x00, 0x14, 0x00, 0x00, 0x00, 0x02, 0x00, 0x00, 0x00,
  0x13, 0x00, 0x00, 0x00, 0x02, 0x00, 0x00, 0x00, 0x2a, 0xff, 0xff, 0xff,
  0x0c, 0x00, 0x00, 0x00, 0x10, 0x00, 0x00, 0x00, 0x04, 0x00, 0x00, 0x00,
  0x01, 0x00, 0x00, 0x00, 0x13, 0x00, 0x00, 0x00, 0x02, 0x00, 0x00, 0x00,
  0x12, 0x00, 0x00, 0x00, 0x07, 0x00, 0x00, 0x00, 0xae, 0xff, 0xff, 0xff,
  0x24, 0x00, 0x00, 0x00, 0x00, 0x00, 0x00, 0x05, 0x34, 0x00, 0x00, 0x00,
  0x38, 0x00, 0x00, 0x00, 0x03, 0x00, 0x00, 0x00, 0x00, 0x00, 0x0e, 0x00,
  0x18, 0x00, 0x17, 0x00, 0x10, 0x00, 0x0c, 0x00, 0x08, 0x00, 0x04, 0x00,
  0x0e, 0x00, 0x00, 0x00, 0x02, 0x00, 0x00, 0x00, 0x02, 0x00, 0x00, 0x00,
  0x02, 0x00, 0x00, 0x00, 0x02, 0x00, 0x00, 0x00, 0x00, 0x00, 0x00, 0x01,
  0x01, 0x00, 0x00, 0x00, 0x12, 0x00, 0x00, 0x00, 0x01, 0x00, 0x00, 0x00,
  0x11, 0x00, 0x00, 0x00, 0x00, 0x00, 0x0e, 0x00, 0x18, 0x00, 0x14, 0x00,
  0x10, 0x00, 0x0c, 0x00, 0x0b, 0x00, 0x04, 0x00, 0x0e, 0x00, 0x00, 0x00,
  0x20, 0x00, 0x00, 0x00, 0x00, 0x00, 0x00, 0x01, 0x2c, 0x00, 0x00, 0x00,
  0x30, 0x00, 0x00, 0x00, 0x02, 0x00, 0x00, 0x00, 0x0c, 0x00, 0x14, 0x00,
  0x13, 0x00, 0x0c, 0x00, 0x08, 0x00, 0x07, 0x00, 0x0c, 0x00, 0x00, 0x00,
  0x00, 0x00, 0x00, 0x01, 0x01, 0x00, 0x00, 0x00, 0x01, 0x00, 0x00, 0x00,
  0x00, 0x00, 0x00, 0x01, 0x01, 0x00, 0x00, 0x00, 0x11, 0x00, 0x00, 0x00,
  0x03, 0x00, 0x00, 0x00, 0x10, 0x00, 0x00, 0x00, 0x0c, 0x00, 0x00, 0x00,
  0x09, 0x00, 0x00, 0x00, 0x00, 0x00, 0x0a, 0x00, 0x10, 0x00, 0x0c, 0x00,
  0x08, 0x00, 0x04, 0x00, 0x0a, 0x00, 0x00, 0x00, 0x0c, 0x00, 0x00, 0x00,
  0x10, 0x00, 0x00, 0x00, 0x01, 0x00, 0x00, 0x00, 0x01, 0x00, 0x00, 0x00,
  0x10, 0x00, 0x00, 0x00, 0x02, 0x00, 0x00, 0x00, 0x0f, 0x00, 0x00, 0x00,
  0x08, 0x00, 0x00, 0x00, 0x00, 0x00, 0x0e, 0x00, 0x14, 0x00, 0x00, 0x00,
  0x10, 0x00, 0x0c, 0x00, 0x0b, 0x00, 0x04, 0x00, 0x0e, 0x00, 0x00, 0x00,
  0x10, 0x00, 0x00, 0x00, 0x00, 0x00, 0x00, 0x16, 0x0c, 0x00, 0x00, 0x00,
  0x10, 0x00, 0x00, 0x00, 0xb0, 0xf4, 0xff, 0xff, 0x01, 0x00, 0x00, 0x00,
  0x0f, 0x00, 0x00, 0x00, 0x02, 0x00, 0x00, 0x00, 0x00, 0x00, 0x00, 0x00,
  0x02, 0x00, 0x00, 0x00, 0x01, 0x00, 0x00, 0x00, 0x1f, 0x00, 0x00, 0x00,
  0x01, 0x00, 0x00, 0x00, 0x00, 0x00, 0x00, 0x00, 0x20, 0x00, 0x00, 0x00,
  0x0c, 0x0b, 0x00, 0x00, 0xbc, 0x0a, 0x00, 0x00, 0x80, 0x0a, 0x00, 0x00,
  0x28, 0x0a, 0x00, 0x00, 0xf0, 0x09, 0x00, 0x00, 0xbc, 0x09, 0x00, 0x00,
  0x78, 0x09, 0x00, 0x00, 0x34, 0x09, 0x00, 0x00, 0xf8, 0x08, 0x00, 0x00,
  0xc4, 0x08, 0x00, 0x00, 0x90, 0x08, 0x00, 0x00, 0x5c, 0x08, 0x00, 0x00,
  0x18, 0x08, 0x00, 0x00, 0xf0, 0x06, 0x00, 0x00, 0x10, 0x05, 0x00, 0x00,
  0xd4, 0x04, 0x00, 0x00, 0x8c, 0x04, 0x00, 0x00, 0x1c, 0x04, 0x00, 0x00,
  0xd8, 0x03, 0x00, 0x00, 0x94, 0x03, 0x00, 0x00, 0x54, 0x03, 0x00, 0x00,
  0x10, 0x03, 0x00, 0x00, 0x9c, 0x02, 0x00, 0x00, 0x58, 0x02, 0x00, 0x00,
  0x14, 0x02, 0x00, 0x00, 0xd4, 0x01, 0x00, 0x00, 0x8c, 0x01, 0x00, 0x00,
  0x18, 0x01, 0x00, 0x00, 0xd0, 0x00, 0x00, 0x00, 0x90, 0x00, 0x00, 0x00,
  0x48, 0x00, 0x00, 0x00, 0x04, 0x00, 0x00, 0x00, 0x8a, 0xf5, 0xff, 0xff,
  0x00, 0x00, 0x00, 0x01, 0x10, 0x00, 0x00, 0x00, 0x10, 0x00, 0x00, 0x00,
  0x20, 0x00, 0x00, 0x00, 0x20, 0x00, 0x00, 0x00, 0x74, 0xf5, 0xff, 0xff,
  0x11, 0x00, 0x00, 0x00, 0x50, 0x61, 0x72, 0x74, 0x69, 0x74, 0x69, 0x6f,
  0x6e, 0x65, 0x64, 0x43, 0x61, 0x6c, 0x6c, 0x3a, 0x30, 0x00, 0x00, 0x00,
  0x02, 0x00, 0x00, 0x00, 0x01, 0x00, 0x00, 0x00, 0x06, 0x00, 0x00, 0x00,
  0xca, 0xf5, 0xff, 0xff, 0x00, 0x00, 0x00, 0x01, 0x10, 0x00, 0x00, 0x00,
  0x10, 0x00, 0x00, 0x00, 0x1f, 0x00, 0x00, 0x00, 0x24, 0x00, 0x00, 0x00,
  0xb4, 0xf5, 0xff, 0xff, 0x17, 0x00, 0x00, 0x00, 0x66, 0x6c, 0x61, 0x74,
  0x74, 0x65, 0x6e, 0x2f, 0x52, 0x65, 0x73, 0x68, 0x61, 0x70, 0x65, 0x3b,
  0x52, 0x65, 0x73, 0x68, 0x61, 0x70, 0x65, 0x00, 0x02, 0x00, 0x00, 0x00,
  0x01, 0x00, 0x00, 0x00, 0x20, 0x00, 0x00, 0x00, 0x0e, 0xf6, 0xff, 0xff,
  0x00, 0x00, 0x00, 0x01, 0x10, 0x00, 0x00, 0x00, 0x10, 0x00, 0x00, 0x00,
  0x1e, 0x00, 0x00, 0x00, 0x14, 0x00, 0x00, 0x00, 0xf8, 0xf5, 0xff, 0xff,
  0x04, 0x00, 0x00, 0x00, 0x4d, 0x65, 0x61, 0x6e, 0x00, 0x00, 0x00, 0x00,
  0x04, 0x00, 0x00, 0x00, 0x01, 0x00, 0x00, 0x00, 0x20, 0x00, 0x00, 0x00,
  0x01, 0x00, 0x00, 0x00, 0x01, 0x00, 0x00, 0x00, 0x4a, 0xf6, 0xff, 0xff,
  0x00, 0x00, 0x00, 0x01, 0x10, 0x00, 0x00, 0x00, 0x10, 0x00, 0x00, 0x00,
  0x1d, 0x00, 0x00, 0x00, 0x1c, 0x00, 0x00, 0x00, 0x34, 0xf6, 0xff, 0xff,
  0x0c, 0x00, 0x00, 0x00, 0x74, 0x72, 0x61, 0x6e, 0x73, 0x70, 0x6f, 0x73,
  0x65, 0x5f, 0x31, 0x32, 0x00, 0x00, 0x00, 0x00, 0x04, 0x00, 0x00, 0x00,
  0x01, 0x00, 0x00, 0x00, 0x20, 0x00, 0x00, 0x00, 0x10, 0x00, 0x00, 0x00,
  0x40, 0x00, 0x00, 0x00, 0x8e, 0xf6, 0xff, 0xff, 0x00, 0x00, 0x00, 0x01,
  0x10, 0x00, 0x00, 0x00, 0x10, 0x00, 0x00, 0x00, 0x1c, 0x00, 0x00, 0x00,
  0x48, 0x00, 0x00, 0x00, 0x78, 0xf6, 0xff, 0xff, 0x3b, 0x00, 0x00, 0x00,
  0x6f, 0x6e, 0x6e, 0x78, 0x5f, 0x74, 0x66, 0x5f, 0x70, 0x72, 0x65, 0x66,
  0x69, 0x78, 0x5f, 0x2f, 0x6e, 0x65, 0x74, 0x2f, 0x6e, 0x65, 0x74, 0x2e,
  0x31, 0x30, 0x2f, 0x52, 0x65, 0x6c, 0x75, 0x3b, 0x41, 0x64, 0x64, 0x5f,
  0x32, 0x3b, 0x63, 0x6f, 0x6e, 0x76, 0x6f, 0x6c, 0x75, 0x74, 0x69, 0x6f,
  0x6e, 0x5f, 0x32, 0x3b, 0x43, 0x6f, 0x6e, 0x73, 0x74, 0x5f, 0x32, 0x00,
  0x04, 0x00, 0x00, 0x00, 0x01, 0x00, 0x00, 0x00, 0x10, 0x00, 0x00, 0x00,
  0x40, 0x00, 0x00, 0x00, 0x20, 0x00, 0x00, 0x00, 0xfe, 0xf6, 0xff, 0xff,
  0x00, 0x00, 0x00, 0x01, 0x10, 0x00, 0x00, 0x00, 0x10, 0x00, 0x00, 0x00,
  0x1b, 0x00, 0x00, 0x00, 0x1c, 0x00, 0x00, 0x00, 0xe8, 0xf6, 0xff, 0xff,
  0x0d, 0x00, 0x00, 0x00, 0x74, 0x72, 0x61, 0x6e, 0x73, 0x70, 0x6f, 0x73,
  0x65, 0x5f, 0x31, 0x31, 0x31, 0x00, 0x00, 0x00, 0x04, 0x00, 0x00, 0x00,
  0x01, 0x00, 0x00, 0x00, 0x12, 0x00, 0x00, 0x00, 0x42, 0x00, 0x00, 0x00,
  0x10, 0x00, 0x00, 0x00, 0x42, 0xf7, 0xff, 0xff, 0x00, 0x00, 0x00, 0x01,
  0x10, 0x00, 0x00, 0x00, 0x10, 0x00, 0x00, 0x00, 0x1a, 0x00, 0x00, 0x00,
  0x14, 0x00, 0x00, 0x00, 0x2c, 0xf7, 0xff, 0xff, 0x05, 0x00, 0x00, 0x00,
  0x50, 0x61, 0x64, 0x5f, 0x32, 0x00, 0x00, 0x00, 0x04, 0x00, 0x00, 0x00,
  0x01, 0x00, 0x00, 0x00, 0x10, 0x00, 0x00, 0x00, 0x12, 0x00, 0x00, 0x00,
  0x42, 0x00, 0x00, 0x00, 0x7e, 0xf7, 0xff, 0xff, 0x00, 0x00, 0x00, 0x01,
  0x10, 0x00, 0x00, 0x00, 0x10, 0x00, 0x00, 0x00, 0x19, 0x00, 0x00, 0x00,
  0x18, 0x00, 0x00, 0x00, 0x68, 0xf7, 0xff, 0xff, 0x0b, 0x00, 0x00, 0x00,
  0x74, 0x72, 0x61, 0x6e, 0x73, 0x70, 0x6f, 0x73, 0x65, 0x5f, 0x39, 0x00,
  0x04, 0x00, 0x00, 0x00, 0x01, 0x00, 0x00, 0x00, 0x10, 0x00, 0x00, 0x00,
  0x10, 0x00, 0x00, 0x00, 0x40, 0x00, 0x00, 0x00, 0xbe, 0xf7, 0xff, 0xff,
  0x00, 0x00, 0x00, 0x01, 0x10, 0x00, 0x00, 0x00, 0x10, 0x00, 0x00, 0x00,
  0x18, 0x00, 0x00, 0x00, 0x18, 0x00, 0x00, 0x00, 0xa8, 0xf7, 0xff, 0xff,
  0x0b, 0x00, 0x00, 0x00, 0x4d, 0x61, 0x78, 0x50, 0x6f, 0x6f, 0x6c, 0x32,
  0x64, 0x5f, 0x31, 0x00, 0x04, 0x00, 0x00, 0x00, 0x01, 0x00, 0x00, 0x00,
  0x10, 0x00, 0x00, 0x00, 0x40, 0x00, 0x00, 0x00, 0x10, 0x00, 0x00, 0x00,
  0xfe, 0xf7, 0xff, 0xff, 0x00, 0x00, 0x00, 0x01, 0x10, 0x00, 0x00, 0x00,
  0x10, 0x00, 0x00, 0x00, 0x17, 0x00, 0x00, 0x00, 0x48, 0x00, 0x00, 0x00,
  0xe8, 0xf7, 0xff, 0xff, 0x3a, 0x00, 0x00, 0x00, 0x6f, 0x6e, 0x6e, 0x78,
  0x5f, 0x74, 0x66, 0x5f, 0x70, 0x72, 0x65, 0x66, 0x69, 0x78, 0x5f, 0x2f,
  0x6e, 0x65, 0x74, 0x2f, 0x6e, 0x65, 0x74, 0x2e, 0x36, 0x2f, 0x52, 0x65,
  0x6c, 0x75, 0x3b, 0x41, 0x64, 0x64, 0x5f, 0x31, 0x3b, 0x63, 0x6f, 0x6e,
  0x76, 0x6f, 0x6c, 0x75, 0x74, 0x69, 0x6f, 0x6e, 0x5f, 0x31, 0x3b, 0x43,
  0x6f, 0x6e, 0x73, 0x74, 0x5f, 0x34, 0x00, 0x00, 0x04, 0x00, 0x00, 0x00,
  0x01, 0x00, 0x00, 0x00, 0x20, 0x00, 0x00, 0x00, 0x81, 0x00, 0x00, 0x00,
  0x10, 0x00, 0x00, 0x00, 0x6e, 0xf8, 0xff, 0xff, 0x00, 0x00, 0x00, 0x01,
  0x10, 0x00, 0x00, 0x00, 0x10, 0x00, 0x00, 0x00, 0x16, 0x00, 0x00, 0x00,
  0x18, 0x00, 0x00, 0x00, 0x58, 0xf8, 0xff, 0xff, 0x0b, 0x00, 0x00, 0x00,
  0x74, 0x72, 0x61, 0x6e, 0x73, 0x70, 0x6f, 0x73, 0x65, 0x5f, 0x36, 0x00,
  0x04, 0x00, 0x00, 0x00, 0x01, 0x00, 0x00, 0x00, 0x22, 0x00, 0x00, 0x00,
  0x83, 0x00, 0x00, 0x00, 0x08, 0x00, 0x00, 0x00, 0xae, 0xf8, 0xff, 0xff,
  0x00, 0x00, 0x00, 0x01, 0x10, 0x00, 0x00, 0x00, 0x10, 0x00, 0x00, 0x00,
  0x15, 0x00, 0x00, 0x00, 0x14, 0x00, 0x00, 0x00, 0x98, 0xf8, 0xff, 0xff,
  0x05, 0x00, 0x00, 0x00, 0x50, 0x61, 0x64, 0x5f, 0x31, 0x00, 0x00, 0x00,
  0x04, 0x00, 0x00, 0x00, 0x01, 0x00, 0x00, 0x00, 0x08, 0x00, 0x00, 0x00,
  0x22, 0x00, 0x00, 0x00, 0x83, 0x00, 0x00, 0x00, 0xea, 0xf8, 0xff, 0xff,
  0x00, 0x00, 0x00, 0x01, 0x10, 0x00, 0x00, 0x00, 0x10, 0x00, 0x00, 0x00,
  0x14, 0x00, 0x00, 0x00, 0x18, 0x00, 0x00, 0x00, 0xd4, 0xf8, 0xff, 0xff,
  0x0b, 0x00, 0x00, 0x00, 0x74, 0x72, 0x61, 0x6e, 0x73, 0x70, 0x6f, 0x73,
  0x65, 0x5f, 0x34, 0x00, 0x04, 0x00, 0x00, 0x00, 0x01, 0x00, 0x00, 0x00,
  0x08, 0x00, 0x00, 0x00, 0x20, 0x00, 0x00, 0x00, 0x81, 0x00, 0x00, 0x00,
  0x2a, 0xf9, 0xff, 0xff, 0x00, 0x00, 0x00, 0x01, 0x10, 0x00, 0x00, 0x00,
  0x10, 0x00, 0x00, 0x00, 0x13, 0x00, 0x00, 0x00, 0x18, 0x00, 0x00, 0x00,
  0x14, 0xf9, 0xff, 0xff, 0x09, 0x00, 0x00, 0x00, 0x4d, 0x61, 0x78, 0x50,
  0x6f, 0x6f, 0x6c, 0x32, 0x64, 0x00, 0x00, 0x00, 0x04, 0x00, 0x00, 0x00,
  0x01, 0x00, 0x00, 0x00, 0x20, 0x00, 0x00, 0x00, 0x81, 0x00, 0x00, 0x00,
  0x08, 0x00, 0x00, 0x00, 0x6a, 0xf9, 0xff, 0xff, 0x00, 0x00, 0x00, 0x01,
  0x10, 0x00, 0x00, 0x00, 0x10, 0x00, 0x00, 0x00, 0x12, 0x00, 0x00, 0x00,
  0x44, 0x00, 0x00, 0x00, 0x54, 0xf9, 0xff, 0xff, 0x36, 0x00, 0x00, 0x00,
  0x6f, 0x6e, 0x6e, 0x78, 0x5f, 0x74, 0x66, 0x5f, 0x70, 0x72, 0x65, 0x66,
  0x69, 0x78, 0x5f, 0x2f, 0x6e, 0x65, 0x74, 0x2f, 0x6e, 0x65, 0x74, 0x2e,
  0x32, 0x2f, 0x52, 0x65, 0x6c, 0x75, 0x3b, 0x41, 0x64, 0x64, 0x3b, 0x63,
  0x6f, 0x6e, 0x76, 0x6f, 0x6c, 0x75, 0x74, 0x69, 0x6f, 0x6e, 0x3b, 0x43,
  0x6f, 0x6e, 0x73, 0x74, 0x5f, 0x36, 0x00, 0x00, 0x04, 0x00, 0x00, 0x00,
  0x01, 0x00, 0x00, 0x00, 0x40, 0x00, 0x00, 0x00, 0x02, 0x01, 0x00, 0x00,
  0x08, 0x00, 0x00, 0x00, 0xd6, 0xf9, 0xff, 0xff, 0x00, 0x00, 0x00, 0x01,
  0x10, 0x00, 0x00, 0x00, 0x10, 0x00, 0x00, 0x00, 0x11, 0x00, 0x00, 0x00,
  0x1c, 0x00, 0x00, 0x00, 0xc0, 0xf9, 0xff, 0xff, 0x0c, 0x00, 0x00, 0x00,
  0x74, 0x72, 0x61, 0x6e, 0x73, 0x70, 0x6f, 0x73, 0x65, 0x5f, 0x31, 0x31,
  0x00, 0x00, 0x00, 0x00, 0x04, 0x00, 0x00, 0x00, 0x01, 0x00, 0x00, 0x00,
  0x42, 0x00, 0x00, 0x00, 0x04, 0x01, 0x00, 0x00, 0x01, 0x00, 0x00, 0x00,
  0x1a, 0xfa, 0xff, 0xff, 0x00, 0x00, 0x00, 0x01, 0x10, 0x00, 0x00, 0x00,
  0x10, 0x00, 0x00, 0x00, 0x10, 0x00, 0x00, 0x00, 0x10, 0x00, 0x00, 0x00,
  0x04, 0xfa, 0xff, 0xff, 0x03, 0x00, 0x00, 0x00, 0x50, 0x61, 0x64, 0x00,
  0x04, 0x00, 0x00, 0x00, 0x01, 0x00, 0x00, 0x00, 0x01, 0x00, 0x00, 0x00,
  0x42, 0x00, 0x00, 0x00, 0x04, 0x01, 0x00, 0x00, 0xd6, 0xfa, 0xff, 0xff,
  0x00, 0x00, 0x00, 0x01, 0x14, 0x00, 0x00, 0x00, 0xa8, 0x01, 0x00, 0x00,
  0x0f, 0x00, 0x00, 0x00, 0x00, 0x00, 0x00, 0x09, 0xb0, 0x01, 0x00, 0x00,
  0x24, 0xfe, 0xff, 0xff, 0x08, 0x00, 0x00, 0x00, 0x0c, 0x01, 0x00, 0x00,
  0x20, 0x00, 0x00, 0x00, 0x00, 0x00, 0x00, 0x00, 0x00, 0x00, 0x00, 0x00,
  0x00, 0x00, 0x00, 0x00, 0x00, 0x00, 0x00, 0x00, 0x00, 0x00, 0x00, 0x00,
  0x00, 0x00, 0x00, 0x00, 0x00, 0x00, 0x00, 0x00, 0x00, 0x00, 0x00, 0x00,
  0x00, 0x00, 0x00, 0x00, 0x00, 0x00, 0x00, 0x00, 0x00, 0x00, 0x00, 0x00,
  0x00, 0x00, 0x00, 0x00, 0x00, 0x00, 0x00, 0x00, 0x00, 0x00, 0x00, 0x00,
  0x00, 0x00, 0x00, 0x00, 0x00, 0x00, 0x00, 0x00, 0x00, 0x00, 0x00, 0x00,
  0x00, 0x00, 0x00, 0x00, 0x00, 0x00, 0x00, 0x00, 0x00, 0x00, 0x00, 0x00,
  0x00, 0x00, 0x00, 0x00, 0x00, 0x00, 0x00, 0x00, 0x00, 0x00, 0x00, 0x00,
  0x00, 0x00, 0x00, 0x00, 0x00, 0x00, 0x00, 0x00, 0x00, 0x00, 0x00, 0x00,
  0x00, 0x00, 0x00, 0x00, 0x00, 0x00, 0x00, 0x00, 0x00, 0x00, 0x00, 0x00,
  0x00, 0x00, 0x00, 0x00, 0x00, 0x00, 0x00, 0x00, 0x00, 0x00, 0x00, 0x00,
  0x00, 0x00, 0x00, 0x00, 0x00, 0x00, 0x00, 0x00, 0x00, 0x00, 0x00, 0x00,
  0x00, 0x00, 0x00, 0x00, 0x00, 0x00, 0x00, 0x00, 0x00, 0x00, 0x00, 0x00,
  0x00, 0x00, 0x00, 0x00, 0x00, 0x00, 0x00, 0x00, 0x00, 0x00, 0x00, 0x00,
  0x00, 0x00, 0x00, 0x00, 0x00, 0x00, 0x00, 0x00, 0x00, 0x00, 0x00, 0x00,
  0x00, 0x00, 0x00, 0x00, 0x00, 0x00, 0x00, 0x00, 0x00, 0x00, 0x00, 0x00,
  0x00, 0x00, 0x00, 0x00, 0x00, 0x00, 0x00, 0x00, 0x00, 0x00, 0x00, 0x00,
  0x00, 0x00, 0x00, 0x00, 0x00, 0x00, 0x00, 0x00, 0x00, 0x00, 0x00, 0x00,
  0x00, 0x00, 0x00, 0x00, 0x00, 0x00, 0x00, 0x00, 0x00, 0x00, 0x00, 0x00,
  0x00, 0x00, 0x00, 0x00, 0x00, 0x00, 0x00, 0x00, 0x00, 0x00, 0x00, 0x00,
  0x00, 0x00, 0x00, 0x00, 0x00, 0x00, 0x00, 0x00, 0x00, 0x00, 0x00, 0x00,
  0x00, 0x00, 0x00, 0x00, 0x00, 0x00, 0x00, 0x00, 0x00, 0x00, 0x00, 0x00,
  0x20, 0x00, 0x00, 0x00, 0x00, 0x6a, 0x50, 0x3c, 0x86, 0x44, 0x91, 0x3c,
  0xae, 0xa8, 0x46, 0x3c, 0x6e, 0xd1, 0x96, 0x3c, 0xb4, 0x8b, 0x83, 0x3c,
  0x67, 0x08, 0x92, 0x3c, 0xad, 0x37, 0x8d, 0x3c, 0x94, 0x0f, 0x68, 0x3c,
  0x44, 0xa1, 0xe8, 0x3c, 0x71, 0x85, 0x3d, 0x3c, 0xa3, 0x55, 0x6e, 0x3c,
  0xb7, 0xba, 0x75, 0x3c, 0xad, 0xf1, 0x29, 0x3c, 0x4f, 0x52, 0x1d, 0x3c,
  0xb4, 0x8f, 0x3a, 0x3c, 0x22, 0xe9, 0x81, 0x3c, 0xb9, 0x3e, 0xcb, 0x3b,
  0x36, 0x37, 0x95, 0x3c, 0xf5, 0x7e, 0x6a, 0x3c, 0x31, 0x05, 0x30, 0x3c,
  0x6c, 0x8f, 0x6a, 0x3c, 0xbe, 0x5a, 0x81, 0x3c, 0x03, 0x08, 0x8c, 0x3c,
  0xdf, 0x79, 0x06, 0x3d, 0x00, 0xb1, 0x4c, 0x3c, 0x8d, 0x6d, 0x0d, 0x3c,
  0x65, 0xc8, 0x91, 0x3c, 0xee, 0xca, 0x35, 0x3c, 0xf4, 0xf7, 0x58, 0x3c,
  0xf0, 0xad, 0xad, 0x3c, 0x33, 0x86, 0x91, 0x3c, 0x51, 0x56, 0x68, 0x3c,
  0x0d, 0x00, 0x00, 0x00, 0x63, 0x6f, 0x6e, 0x76, 0x6f, 0x6c, 0x75, 0x74,
  0x69, 0x6f, 0x6e, 0x5f, 0x32, 0x00, 0x00, 0x00, 0x04, 0x00, 0x00, 0x00,
  0x20, 0x00, 0x00, 0x00, 0x03, 0x00, 0x00, 0x00, 0x03, 0x00, 0x00, 0x00,
  0x10, 0x00, 0x00, 0x00, 0xb2, 0xfc, 0xff, 0xff, 0x00, 0x00, 0x00, 0x01,
  0x20, 0x00, 0x00, 0x00, 0xf0, 0x00, 0x00, 0x00, 0x0e, 0x00, 0x00, 0x00,
  0x00, 0x00, 0x00, 0x09, 0xf8, 0x00, 0x00, 0x00, 0x0c, 0x00, 0x0c, 0x00,
  0x00, 0x00, 0x00, 0x00, 0x08, 0x00, 0x04, 0x00, 0x0c, 0x00, 0x00, 0x00,
  0x08, 0x00, 0x00, 0x00, 0x88, 0x00, 0x00, 0x00, 0x10, 0x00, 0x00, 0x00,
  0x00, 0x00, 0x00, 0x00, 0x00, 0x00, 0x00, 0x00, 0x00, 0x00, 0x00, 0x00,
  0x00, 0x00, 0x00, 0x00, 0x00, 0x00, 0x00, 0x00, 0x00, 0x00, 0x00, 0x00,
  0x00, 0x00, 0x00, 0x00, 0x00, 0x00, 0x00, 0x00, 0x00, 0x00, 0x00, 0x00,
  0x00, 0x00, 0x00, 0x00, 0x00, 0x00, 0x00, 0x00, 0x00, 0x00, 0x00, 0x00,
  0x00, 0x00, 0x00, 0x00, 0x00, 0x00, 0x00, 0x00, 0x00, 0x00, 0x00, 0x00,
  0x00, 0x00, 0x00, 0x00, 0x00, 0x00, 0x00, 0x00, 0x00, 0x00, 0x00, 0x00,
  0x00, 0x00, 0x00, 0x00, 0x00, 0x00, 0x00, 0x00, 0x00, 0x00, 0x00, 0x00,
  0x00, 0x00, 0x00, 0x00, 0x00, 0x00, 0x00, 0x00, 0x00, 0x00, 0x00, 0x00,
  0x00, 0x00, 0x00, 0x00, 0x00, 0x00, 0x00, 0x00, 0x00, 0x00, 0x00, 0x00,
  0x00, 0x00, 0x00, 0x00, 0x00, 0x00, 0x00, 0x00, 0x00, 0x00, 0x00, 0x00,
  0x00, 0x00, 0x00, 0x00, 0x00, 0x00, 0x00, 0x00, 0x10, 0x00, 0x00, 0x00,
  0x9e, 0xde, 0x62, 0x3a, 0x66, 0x1e, 0x36, 0x3a, 0x42, 0x06, 0x59, 0x3b,
  0x91, 0xb4, 0x1c, 0x3a, 0xe9, 0x8c, 0xaf, 0x3b, 0x7a, 0x9c, 0xad, 0x3a,
  0xed, 0x5b, 0xb2, 0x3a, 0xd4, 0x0f, 0x5a, 0x3a, 0xa5, 0x43, 0x12, 0x3a,
  0x6a, 0x2c, 0x7d, 0x3b, 0x75, 0x67, 0x37, 0x3b, 0x92, 0xec, 0x76, 0x3b,
  0x83, 0x2b, 0xa6, 0x3a, 0x03, 0x42, 0x2d, 0x3b, 0x80, 0xe5, 0x83, 0x3a,
  0xe9, 0x9c, 0x47, 0x3b, 0x0d, 0x00, 0x00, 0x00, 0x63, 0x6f, 0x6e, 0x76,
  0x6f, 0x6c, 0x75, 0x74, 0x69, 0x6f, 0x6e, 0x5f, 0x31, 0x00, 0x00, 0x00,
  0x04, 0x00, 0x00, 0x00, 0x10, 0x00, 0x00, 0x00, 0x03, 0x00, 0x00, 0x00,
  0x03, 0x00, 0x00, 0x00, 0x08, 0x00, 0x00, 0x00, 0x52, 0xfd, 0xff, 0xff,
  0x00, 0x00, 0x00, 0x01, 0x10, 0x00, 0x00, 0x00, 0x10, 0x00, 0x00, 0x00,
  0x0d, 0x00, 0x00, 0x00, 0x18, 0x00, 0x00, 0x00, 0x3c, 0xfd, 0xff, 0xff,
  0x0b, 0x00, 0x00, 0x00, 0x63, 0x6f, 0x6e, 0x76, 0x6f, 0x6c, 0x75, 0x74,
  0x69, 0x6f, 0x6e, 0x00, 0x04, 0x00, 0x00, 0x00, 0x08, 0x00, 0x00, 0x00,
  0x03, 0x00, 0x00, 0x00, 0x03, 0x00, 0x00, 0x00, 0x01, 0x00, 0x00, 0x00,
  0x92, 0xfd, 0xff, 0xff, 0x00, 0x00, 0x00, 0x01, 0x10, 0x00, 0x00, 0x00,
  0x10, 0x00, 0x00, 0x00, 0x0c, 0x00, 0x00, 0x00, 0x14, 0x00, 0x00, 0x00,
  0x7c, 0xfd, 0xff, 0xff, 0x07, 0x00, 0x00, 0x00, 0x43, 0x6f, 0x6e, 0x73,
  0x74, 0x5f, 0x32, 0x00, 0x01, 0x00, 0x00, 0x00, 0x20, 0x00, 0x00, 0x00,
  0xc2, 0xfd, 0xff, 0xff, 0x00, 0x00, 0x00, 0x01, 0x10, 0x00, 0x00, 0x00,
  0x10, 0x00, 0x00, 0x00, 0x0b, 0x00, 0x00, 0x00, 0x14, 0x00, 0x00, 0x00,
  0xac, 0xfd, 0xff, 0xff, 0x07, 0x00, 0x00, 0x00, 0x43, 0x6f, 0x6e, 0x73,
  0x74, 0x5f, 0x34, 0x00, 0x01, 0x00, 0x00, 0x00, 0x10, 0x00, 0x00, 0x00,
  0xf2, 0xfd, 0xff, 0xff, 0x00, 0x00, 0x00, 0x01, 0x10, 0x00, 0x00, 0x00,
  0x10, 0x00, 0x00, 0x00, 0x0a, 0x00, 0x00, 0x00, 0x14, 0x00, 0x00, 0x00,
  0xdc, 0xfd, 0xff, 0xff, 0x07, 0x00, 0x00, 0x00, 0x43, 0x6f, 0x6e, 0x73,
  0x74, 0x5f, 0x36, 0x00, 0x01, 0x00, 0x00, 0x00, 0x08, 0x00, 0x00, 0x00,
  0xa6, 0xfe, 0xff, 0xff, 0x00, 0x00, 0x00, 0x01, 0x14, 0x00, 0x00, 0x00,
  0x14, 0x00, 0x00, 0x00, 0x09, 0x00, 0x00, 0x00, 0x00, 0x00, 0x00, 0x02,
  0x18, 0x00, 0x00, 0x00, 0x10, 0xfe, 0xff, 0xff, 0x0b, 0x00, 0x00, 0x00,
  0x74, 0x72, 0x61, 0x6e, 0x73, 0x70, 0x6f, 0x73, 0x65, 0x5f, 0x31, 0x00,
  0x01, 0x00, 0x00, 0x00, 0x04, 0x00, 0x00, 0x00, 0xde, 0xfe, 0xff, 0xff,
  0x00, 0x00, 0x00, 0x01, 0x14, 0x00, 0x00, 0x00, 0x14, 0x00, 0x00, 0x00,
  0x08, 0x00, 0x00, 0x00, 0x00, 0x00, 0x00, 0x02, 0x20, 0x00, 0x00, 0x00,
  0x48, 0xfe, 0xff, 0xff, 0x11, 0x00, 0x00, 0x00, 0x74, 0x72, 0x61, 0x6e,
  0x73, 0x70, 0x6f, 0x73, 0x65, 0x5f, 0x31, 0x32, 0x2f, 0x70, 0x65, 0x72,
  0x6d, 0x00, 0x00, 0x00, 0x01, 0x00, 0x00, 0x00, 0x04, 0x00, 0x00, 0x00,
  0x1e, 0xff, 0xff, 0xff, 0x00, 0x00, 0x00, 0x01, 0x14, 0x00, 0x00, 0x00,
  0x14, 0x00, 0x00, 0x00, 0x07, 0x00, 0x00, 0x00, 0x00, 0x00, 0x00, 0x02,
  0x20, 0x00, 0x00, 0x00, 0x88, 0xfe, 0xff, 0xff, 0x10, 0x00, 0x00, 0x00,
  0x74, 0x72, 0x61, 0x6e, 0x73, 0x70, 0x6f, 0x73, 0x65, 0x5f, 0x31, 0x2f,
  0x70, 0x65, 0x72, 0x6d, 0x00, 0x00, 0x00, 0x00, 0x01, 0x00, 0x00, 0x00,
  0x04, 0x00, 0x00, 0x00, 0xda, 0xfe, 0xff, 0xff, 0x00, 0x00, 0x00, 0x01,
  0x10, 0x00, 0x00, 0x00, 0x10, 0x00, 0x00, 0x00, 0x06, 0x00, 0x00, 0x00,
  0x14, 0x00, 0x00, 0x00, 0xc4, 0xfe, 0xff, 0xff, 0x06, 0x00, 0x00, 0x00,
  0x43, 0x6f, 0x6e, 0x73, 0x74, 0x31, 0x00, 0x00, 0x01, 0x00, 0x00, 0x00,
  0x06, 0x00, 0x00, 0x00, 0x8e, 0xff, 0xff, 0xff, 0x00, 0x00, 0x00, 0x01,
  0x14, 0x00, 0x00, 0x00, 0x14, 0x00, 0x00, 0x00, 0x05, 0x00, 0x00, 0x00,
  0x00, 0x00, 0x00, 0x02, 0x14, 0x00, 0x00, 0x00, 0xf8, 0xfe, 0xff, 0xff,
  0x07, 0x00, 0x00, 0x00, 0x73, 0x70, 0x6c, 0x69, 0x74, 0x5f, 0x33, 0x00,
  0x01, 0x00, 0x00, 0x00, 0x02, 0x00, 0x00, 0x00, 0xc2, 0xff, 0xff, 0xff,
  0x00, 0x00, 0x00, 0x01, 0x14, 0x00, 0x00, 0x00, 0x14, 0x00, 0x00, 0x00,
  0x04, 0x00, 0x00, 0x00, 0x00, 0x00, 0x00, 0x02, 0x1c, 0x00, 0x00, 0x00,
  0x2c, 0xff, 0xff, 0xff, 0x0d, 0x00, 0x00, 0x00, 0x66, 0x6c, 0x61, 0x74,
  0x74, 0x65, 0x6e, 0x2f, 0x43, 0x6f, 0x6e, 0x73, 0x74, 0x00, 0x00, 0x00,
  0x01, 0x00, 0x00, 0x00, 0x02, 0x00, 0x00, 0x00, 0x00, 0x00, 0x16, 0x00,
  0x1c, 0x00, 0x18, 0x00, 0x17, 0x00, 0x10, 0x00, 0x0c, 0x00, 0x08, 0x00,
  0x00, 0x00, 0x00, 0x00, 0x00, 0x00, 0x07, 0x00, 0x16, 0x00, 0x00, 0x00,
  0x00, 0x00, 0x00, 0x01, 0x14, 0x00, 0x00, 0x00, 0x14, 0x00, 0x00, 0x00,
  0x03, 0x00, 0x00, 0x00, 0x00, 0x00, 0x00, 0x02, 0x14, 0x00, 0x00, 0x00,
  0x80, 0xff, 0xff, 0xff, 0x05, 0x00, 0x00, 0x00, 0x43, 0x6f, 0x6e, 0x73,
  0x74, 0x00, 0x00, 0x00, 0x02, 0x00, 0x00, 0x00, 0x04, 0x00, 0x00, 0x00,
  0x02, 0x00, 0x00, 0x00, 0xca, 0xff, 0xff, 0xff, 0x00, 0x00, 0x00, 0x01,
  0x10, 0x00, 0x00, 0x00, 0x10, 0x00, 0x00, 0x00, 0x02, 0x00, 0x00, 0x00,
  0x14, 0x00, 0x00, 0x00, 0xb4, 0xff, 0xff, 0xff, 0x06, 0x00, 0x00, 0x00,
  0x4d, 0x61, 0x74, 0x4d, 0x75, 0x6c, 0x00, 0x00, 0x02, 0x00, 0x00, 0x00,
  0x06, 0x00, 0x00, 0x00, 0x20, 0x00, 0x00, 0x00, 0x00, 0x00, 0x16, 0x00,
  0x18, 0x00, 0x14, 0x00, 0x00, 0x00, 0x10, 0x00, 0x0c, 0x00, 0x08, 0x00,
  0x00, 0x00, 0x00, 0x00, 0x00, 0x00, 0x07, 0x00, 0x16, 0x00, 0x00, 0x00,
  0x00, 0x00, 0x00, 0x01, 0x14, 0x00, 0x00, 0x00, 0x14, 0x00, 0x00, 0x00,
  0x01, 0x00, 0x00, 0x00, 0x28, 0x00, 0x00, 0x00, 0x04, 0x00, 0x04, 0x00,
  0x04, 0x00, 0x00, 0x00, 0x17, 0x00, 0x00, 0x00, 0x73, 0x65, 0x72, 0x76,
  0x69, 0x6e, 0x67, 0x5f, 0x64, 0x65, 0x66, 0x61, 0x75, 0x6c, 0x74, 0x5f,
  0x69, 0x6e, 0x70, 0x75, 0x74, 0x3a, 0x30, 0x00, 0x04, 0x00, 0x00, 0x00,
  0x01, 0x00, 0x00, 0x00, 0x01, 0x00, 0x00, 0x00, 0x40, 0x00, 0x00, 0x00,
  0x02, 0x01, 0x00, 0x00, 0x07, 0x00, 0x00, 0x00, 0x80, 0x00, 0x00, 0x00,
  0x64, 0x00, 0x00, 0x00, 0x50, 0x00, 0x00, 0x00, 0x34, 0x00, 0x00, 0x00,
  0x24, 0x00, 0x00, 0x00, 0x14, 0x00, 0x00, 0x00, 0x04, 0x00, 0x00, 0x00,
  0xa8, 0xff, 0xff, 0xff, 0x09, 0x00, 0x00, 0x00, 0x00, 0x00, 0x00, 0x09,
  0xb4, 0xff, 0xff, 0xff, 0x28, 0x00, 0x00, 0x00, 0x00, 0x00, 0x00, 0x28,
  0xc0, 0xff, 0xff, 0xff, 0x27, 0x00, 0x00, 0x00, 0x00, 0x00, 0x00, 0x27,
  0xcc, 0xff, 0xff, 0xff, 0x11, 0x00, 0x00, 0x00, 0x00, 0x00, 0x00, 0x11,
  0x0c, 0x00, 0x10, 0x00, 0x0f, 0x00, 0x00, 0x00, 0x08, 0x00, 0x04, 0x00,
  0x0c, 0x00, 0x00, 0x00, 0x03, 0x00, 0x00, 0x00, 0x05, 0x00, 0x00, 0x00,
  0x00, 0x00, 0x00, 0x03, 0xf4, 0xff, 0xff, 0xff, 0x16, 0x00, 0x00, 0x00,
  0x00, 0x00, 0x00, 0x16, 0x0c, 0x00, 0x0c, 0x00, 0x0b, 0x00, 0x00, 0x00,
  0x00, 0x00, 0x04, 0x00, 0x0c, 0x00, 0x00, 0x00, 0x22, 0x00, 0x00, 0x00,
  0x00, 0x00, 0x00, 0x22
};
unsigned int buow_tinycnn_tflite_len = 12064;
